#pragma once

const unsigned char model_tflite[] = {
  0x1c, 0x00, 0x00, 0x00, 0x54, 0x46, 0x4c, 0x33, 0x00, 0x00, 0x12, 0x00,
  0x1c, 0x00, 0x04, 0x00, 0x08, 0x00, 0x0c, 0x00, 0x10, 0x00, 0x14, 0x00,
  0x00, 0x00, 0x18, 0x00, 0x12, 0x00, 0x00, 0x00, 0x03, 0x00, 0x00, 0x00,
  0x14, 0x00, 0x00, 0x00, 0x1c, 0x00, 0x00, 0x00, 0xa0, 0x00, 0x00, 0x00,
  0x1c, 0x00, 0x00, 0x00, 0x48, 0x00, 0x00, 0x00, 0x02, 0x00, 0x00, 0x00,
  0xf4, 0x02, 0x00, 0x00, 0x3c, 0x02, 0x00, 0x00, 0x01, 0x00, 0x00, 0x00,
  0xa8, 0x00, 0x00, 0x00, 0x0b, 0x00, 0x00, 0x00, 0x78, 0x0b, 0x00, 0x00,
  0x74, 0x0b, 0x00, 0x00, 0x18, 0x0a, 0x00, 0x00, 0x8c, 0x09, 0x00, 0x00,
  0x70, 0x05, 0x00, 0x00, 0x34, 0x03, 0x00, 0x00, 0x60, 0x0b, 0x00, 0x00,
  0x5c, 0x0b, 0x00, 0x00, 0x58, 0x0b, 0x00, 0x00, 0x54, 0x0b, 0x00, 0x00,
  0x38, 0x00, 0x00, 0x00, 0x01, 0x00, 0x00, 0x00, 0x0c, 0x00, 0x00, 0x00,
  0x08, 0x00, 0x0c, 0x00, 0x04, 0x00, 0x08, 0x00, 0x08, 0x00, 0x00, 0x00,
  0x08, 0x00, 0x00, 0x00, 0x0a, 0x00, 0x00, 0x00, 0x13, 0x00, 0x00, 0x00,
  0x6d, 0x69, 0x6e, 0x5f, 0x72, 0x75, 0x6e, 0x74, 0x69, 0x6d, 0x65, 0x5f,
  0x76, 0x65, 0x72, 0x73, 0x69, 0x6f, 0x6e, 0x00, 0x46, 0xf6, 0xff, 0xff,
  0x04, 0x00, 0x00, 0x00, 0x10, 0x00, 0x00, 0x00, 0x31, 0x2e, 0x31, 0x34,
  0x2e, 0x30, 0x00, 0x00, 0x00, 0x00, 0x00, 0x00, 0x00, 0x00, 0x00, 0x00,
  0x0f, 0x00, 0x00, 0x00, 0x4d, 0x4c, 0x49, 0x52, 0x20, 0x43, 0x6f, 0x6e,
  0x76, 0x65, 0x72, 0x74, 0x65, 0x64, 0x2e, 0x00, 0x00, 0x00, 0x0e, 0x00,
  0x18, 0x00, 0x04, 0x00, 0x08, 0x00, 0x0c, 0x00, 0x10, 0x00, 0x14, 0x00,
  0x0e, 0x00, 0x00, 0x00, 0x14, 0x00, 0x00, 0x00, 0x38, 0x00, 0x00, 0x00,
  0x3c, 0x00, 0x00, 0x00, 0x40, 0x00, 0x00, 0x00, 0x50, 0x00, 0x00, 0x00,
  0x09, 0x00, 0x00, 0x00, 0x6c, 0x0a, 0x00, 0x00, 0xf4, 0x09, 0x00, 0x00,
  0xf0, 0x08, 0x00, 0x00, 0x84, 0x08, 0x00, 0x00, 0x68, 0x04, 0x00, 0x00,
  0x1c, 0x02, 0x00, 0x00, 0x64, 0x01, 0x00, 0x00, 0xcc, 0x00, 0x00, 0x00,
  0x54, 0x00, 0x00, 0x00, 0x01, 0x00, 0x00, 0x00, 0x00, 0x00, 0x00, 0x00,
  0x01, 0x00, 0x00, 0x00, 0x08, 0x00, 0x00, 0x00, 0x04, 0x00, 0x00, 0x00,
  0xb0, 0x01, 0x00, 0x00, 0x14, 0x01, 0x00, 0x00, 0x78, 0x00, 0x00, 0x00,
  0x10, 0x00, 0x00, 0x00, 0x04, 0x00, 0x00, 0x00, 0x6d, 0x61, 0x69, 0x6e,
  0x00, 0x00, 0x00, 0x00, 0x0e, 0xff, 0xff, 0xff, 0x01, 0x00, 0x00, 0x00,
  0x10, 0x00, 0x00, 0x00, 0x04, 0x00, 0x00, 0x00, 0x01, 0x00, 0x00, 0x00,
  0x08, 0x00, 0x00, 0x00, 0x01, 0x00, 0x00, 0x00, 0x07, 0x00, 0x00, 0x00,
  0x1c, 0xf6, 0xff, 0xff, 0x14, 0x00, 0x00, 0x00, 0x09, 0x00, 0x00, 0x00,
  0x18, 0x00, 0x00, 0x00, 0x30, 0x00, 0x00, 0x00, 0x20, 0x00, 0x00, 0x00,
  0x02, 0x00, 0x00, 0x00, 0x01, 0x00, 0x00, 0x00, 0x04, 0x00, 0x00, 0x00,
  0x08, 0x00, 0x00, 0x00, 0x49, 0x64, 0x65, 0x6e, 0x74, 0x69, 0x74, 0x79,
  0x00, 0x00, 0x00, 0x00, 0x02, 0x00, 0x00, 0x00, 0xff, 0xff, 0xff, 0xff,
  0x04, 0x00, 0x00, 0x00, 0xfc, 0xf5, 0xff, 0xff, 0xde, 0xfe, 0xff, 0xff,
  0x00, 0x00, 0x00, 0x08, 0x18, 0x00, 0x00, 0x00, 0x0c, 0x00, 0x00, 0x00,
  0x04, 0x00, 0x00, 0x00, 0x14, 0xf6, 0xff, 0xff, 0x01, 0x00, 0x00, 0x00,
  0x07, 0x00, 0x00, 0x00, 0x03, 0x00, 0x00, 0x00, 0x06, 0x00, 0x00, 0x00,
  0x04, 0x00, 0x00, 0x00, 0x02, 0x00, 0x00, 0x00, 0x90, 0xf6, 0xff, 0xff,
  0x14, 0x00, 0x00, 0x00, 0x08, 0x00, 0x00, 0x00, 0x18, 0x00, 0x00, 0x00,
  0x48, 0x00, 0x00, 0x00, 0x38, 0x00, 0x00, 0x00, 0x02, 0x00, 0x00, 0x00,
  0x01, 0x00, 0x00, 0x00, 0x04, 0x00, 0x00, 0x00, 0x21, 0x00, 0x00, 0x00,
  0x73, 0x65, 0x71, 0x75, 0x65, 0x6e, 0x74, 0x69, 0x61, 0x6c, 0x5f, 0x31,
  0x2f, 0x64, 0x65, 0x6e, 0x73, 0x65, 0x5f, 0x44, 0x65, 0x6e, 0x73, 0x65,
  0x32, 0x2f, 0x42, 0x69, 0x61, 0x73, 0x41, 0x64, 0x64, 0x00, 0x00, 0x00,
  0x02, 0x00, 0x00, 0x00, 0xff, 0xff, 0xff, 0xff, 0x04, 0x00, 0x00, 0x00,
  0xec, 0xf7, 0xff, 0xff, 0x00, 0x00, 0x0a, 0x00, 0x10, 0x00, 0x04, 0x00,
  0x08, 0x00, 0x0c, 0x00, 0x0a, 0x00, 0x00, 0x00, 0x01, 0x00, 0x00, 0x00,
  0x10, 0x00, 0x00, 0x00, 0x04, 0x00, 0x00, 0x00, 0x01, 0x00, 0x00, 0x00,
  0x06, 0x00, 0x00, 0x00, 0x01, 0x00, 0x00, 0x00, 0x05, 0x00, 0x00, 0x00,
  0x56, 0xff, 0xff, 0xff, 0x00, 0x00, 0x00, 0x0e, 0x01, 0x00, 0x00, 0x00,
  0x24, 0xf7, 0xff, 0xff, 0x14, 0x00, 0x00, 0x00, 0x07, 0x00, 0x00, 0x00,
  0x18, 0x00, 0x00, 0x00, 0x48, 0x00, 0x00, 0x00, 0x38, 0x00, 0x00, 0x00,
  0x02, 0x00, 0x00, 0x00, 0x01, 0x00, 0x00, 0x00, 0x1e, 0x00, 0x00, 0x00,
  0x21, 0x00, 0x00, 0x00, 0x73, 0x65, 0x71, 0x75, 0x65, 0x6e, 0x74, 0x69,
  0x61, 0x6c, 0x5f, 0x31, 0x2f, 0x64, 0x65, 0x6e, 0x73, 0x65, 0x5f, 0x44,
  0x65, 0x6e, 0x73, 0x65, 0x31, 0x2f, 0x53, 0x69, 0x67, 0x6d, 0x6f, 0x69,
  0x64, 0x00, 0x00, 0x00, 0x02, 0x00, 0x00, 0x00, 0xff, 0xff, 0xff, 0xff,
  0x1e, 0x00, 0x00, 0x00, 0x80, 0xf8, 0xff, 0xff, 0x00, 0x00, 0x0e, 0x00,
  0x14, 0x00, 0x00, 0x00, 0x08, 0x00, 0x0c, 0x00, 0x07, 0x00, 0x10, 0x00,
  0x0e, 0x00, 0x00, 0x00, 0x00, 0x00, 0x00, 0x08, 0x18, 0x00, 0x00, 0x00,
  0x0c, 0x00, 0x00, 0x00, 0x04, 0x00, 0x00, 0x00, 0x44, 0xf7, 0xff, 0xff,
  0x01, 0x00, 0x00, 0x00, 0x05, 0x00, 0x00, 0x00, 0x03, 0x00, 0x00, 0x00,
  0x00, 0x00, 0x00, 0x00, 0x03, 0x00, 0x00, 0x00, 0x01, 0x00, 0x00, 0x00,
  0x00, 0x00, 0x0a, 0x00, 0x0c, 0x00, 0x07, 0x00, 0x00, 0x00, 0x08, 0x00,
  0x0a, 0x00, 0x00, 0x00, 0x00, 0x00, 0x00, 0x09, 0x01, 0x00, 0x00, 0x00,
  0xd8, 0xf7, 0xff, 0xff, 0x14, 0x00, 0x00, 0x00, 0x06, 0x00, 0x00, 0x00,
  0x18, 0x00, 0x00, 0x00, 0x48, 0x00, 0x00, 0x00, 0x38, 0x00, 0x00, 0x00,
  0x02, 0x00, 0x00, 0x00, 0x01, 0x00, 0x00, 0x00, 0x1e, 0x00, 0x00, 0x00,
  0x21, 0x00, 0x00, 0x00, 0x73, 0x65, 0x71, 0x75, 0x65, 0x6e, 0x74, 0x69,
  0x61, 0x6c, 0x5f, 0x31, 0x2f, 0x64, 0x65, 0x6e, 0x73, 0x65, 0x5f, 0x44,
  0x65, 0x6e, 0x73, 0x65, 0x31, 0x2f, 0x42, 0x69, 0x61, 0x73, 0x41, 0x64,
  0x64, 0x00, 0x00, 0x00, 0x02, 0x00, 0x00, 0x00, 0xff, 0xff, 0xff, 0xff,
  0x1e, 0x00, 0x00, 0x00, 0xd0, 0xf7, 0xff, 0xff, 0x2e, 0xf9, 0xff, 0xff,
  0x04, 0x00, 0x00, 0x00, 0xe0, 0x01, 0x00, 0x00, 0x22, 0x0f, 0x92, 0xbe,
  0x85, 0xc5, 0x5f, 0xbf, 0xdf, 0x48, 0xce, 0x3f, 0x18, 0x9e, 0x65, 0x3f,
  0x83, 0xd3, 0xad, 0xbe, 0xcc, 0x69, 0xa2, 0x3e, 0x32, 0x49, 0xf7, 0xbe,
  0x36, 0x29, 0xb6, 0x3f, 0x6a, 0x03, 0xc7, 0x3f, 0xce, 0xf4, 0xb8, 0xbe,
  0x26, 0x54, 0xe2, 0x3f, 0x53, 0x76, 0x55, 0xbf, 0xfb, 0x73, 0x8c, 0x3d,
  0x91, 0xab, 0x0f, 0xc0, 0xcd, 0xe0, 0x32, 0xbf, 0xe5, 0x9e, 0xfb, 0xbe,
  0x5d, 0x80, 0xbc, 0xbf, 0xfa, 0x36, 0x71, 0x3f, 0xce, 0xa5, 0xbe, 0xbf,
  0x4d, 0xc1, 0x97, 0x3f, 0x30, 0x6c, 0x30, 0xbf, 0x66, 0x68, 0x96, 0xbf,
  0xbb, 0xd5, 0x93, 0xbe, 0x4b, 0x7d, 0x4c, 0xbe, 0x1e, 0x24, 0x0a, 0xc0,
  0xf8, 0x26, 0xa6, 0x3e, 0xae, 0x0b, 0xa9, 0x3c, 0x91, 0x69, 0xf2, 0x3e,
  0x20, 0x17, 0x40, 0xbf, 0xfb, 0x41, 0x9f, 0x3f, 0x4d, 0x3a, 0xcb, 0x3f,
  0x31, 0x9c, 0x93, 0xbe, 0x2e, 0xc9, 0x58, 0xbf, 0x89, 0xbe, 0x71, 0xbf,
  0x16, 0x6d, 0x8f, 0x3f, 0x37, 0x48, 0xaa, 0xbf, 0x85, 0xd9, 0xaf, 0xbe,
  0x92, 0x30, 0xca, 0xbe, 0xfe, 0x49, 0x34, 0xbf, 0xaa, 0x1a, 0x8a, 0x3f,
  0x4d, 0x13, 0x64, 0xbf, 0xed, 0xae, 0x66, 0xbf, 0xdc, 0xc2, 0xa5, 0xbe,
  0xc0, 0x67, 0x90, 0x3f, 0x5d, 0x3d, 0x7b, 0xbf, 0x91, 0x02, 0xb7, 0xbf,
  0x79, 0x1f, 0xc8, 0x3f, 0x00, 0x27, 0x9c, 0x3d, 0xa3, 0xf9, 0xcc, 0x3f,
  0x23, 0xf4, 0xe8, 0xbd, 0x83, 0x53, 0x83, 0xbf, 0x53, 0xac, 0x6c, 0xbe,
  0x27, 0x07, 0xbe, 0xbf, 0xeb, 0xd0, 0x37, 0x3e, 0x3d, 0x4d, 0x99, 0xbe,
  0xdb, 0x40, 0x56, 0x3f, 0x14, 0x35, 0xef, 0xbe, 0x40, 0x41, 0xf5, 0xbe,
  0xe0, 0x85, 0xc5, 0x3f, 0xb4, 0x34, 0x2a, 0x3f, 0x22, 0xa3, 0xf0, 0xbf,
  0x89, 0x3d, 0x59, 0x3e, 0x11, 0x94, 0x3d, 0xbf, 0x61, 0x42, 0x8f, 0xbf,
  0xbf, 0xfb, 0x19, 0x40, 0x26, 0x37, 0x82, 0x3d, 0x52, 0xf8, 0xfc, 0x3d,
  0xb1, 0x5b, 0xb8, 0xbf, 0x0d, 0x02, 0xde, 0x3e, 0x1f, 0xd7, 0xec, 0x3e,
  0xd4, 0xde, 0x53, 0x3f, 0xe9, 0xab, 0x0f, 0x3f, 0x55, 0x28, 0xa5, 0x3f,
  0x46, 0xa9, 0x0a, 0x3e, 0x5d, 0x9a, 0x52, 0x3f, 0xbd, 0x2f, 0x38, 0x3f,
  0xed, 0x8a, 0x74, 0x3e, 0x6c, 0x7b, 0xc8, 0xbf, 0x1f, 0xb3, 0x58, 0xbf,
  0xcd, 0x0a, 0xfa, 0xbf, 0xe3, 0x7a, 0x89, 0x3f, 0xce, 0x6c, 0x86, 0x3f,
  0xb4, 0x53, 0xe4, 0x3f, 0x5a, 0x4d, 0xa6, 0x3e, 0x83, 0x91, 0x02, 0x40,
  0x6a, 0x4a, 0x31, 0xbf, 0xd8, 0x36, 0x7d, 0x3f, 0x7c, 0xc4, 0x1e, 0x3f,
  0x4f, 0xb7, 0xa8, 0xbe, 0x36, 0xb2, 0x8f, 0xbf, 0xcd, 0xed, 0xe5, 0xbf,
  0x3f, 0xd5, 0x2f, 0xbf, 0x55, 0x3a, 0x81, 0xbf, 0x24, 0xf3, 0x9d, 0x3e,
  0xb5, 0x8f, 0x8e, 0x3e, 0x49, 0x3d, 0x29, 0x3f, 0x28, 0x27, 0xba, 0xbe,
  0xaa, 0xad, 0x0f, 0xbf, 0x80, 0x5c, 0xa3, 0x3e, 0x3a, 0xb3, 0x95, 0xbe,
  0x0b, 0x09, 0xaa, 0x3e, 0x45, 0xe6, 0xa2, 0x3f, 0xa9, 0xfd, 0x19, 0xbf,
  0x67, 0x6a, 0xc1, 0xbe, 0x45, 0x5b, 0xaf, 0x3f, 0xa0, 0x52, 0x85, 0x3f,
  0x0b, 0x6e, 0x94, 0xbe, 0x89, 0x59, 0x0d, 0xbf, 0x61, 0x7c, 0x82, 0xbf,
  0x2e, 0x91, 0x55, 0xbf, 0x17, 0x45, 0x8e, 0x3f, 0xd1, 0x16, 0x91, 0x3e,
  0xe8, 0x2c, 0x09, 0x40, 0x46, 0x85, 0xb7, 0x3e, 0x3f, 0x50, 0x94, 0x3f,
  0x00, 0x89, 0x7e, 0x3e, 0x69, 0x34, 0x93, 0x3f, 0x8f, 0xb4, 0x86, 0xbe,
  0x61, 0x7c, 0xc0, 0xbf, 0x21, 0x8c, 0x5e, 0xbf, 0x8e, 0xfa, 0xff, 0xff,
  0x10, 0x00, 0x00, 0x00, 0x05, 0x00, 0x00, 0x00, 0x14, 0x00, 0x00, 0x00,
  0x38, 0x00, 0x00, 0x00, 0x02, 0x00, 0x00, 0x00, 0x04, 0x00, 0x00, 0x00,
  0x1e, 0x00, 0x00, 0x00, 0x20, 0x00, 0x00, 0x00, 0x73, 0x65, 0x71, 0x75,
  0x65, 0x6e, 0x74, 0x69, 0x61, 0x6c, 0x5f, 0x31, 0x2f, 0x64, 0x65, 0x6e,
  0x73, 0x65, 0x5f, 0x44, 0x65, 0x6e, 0x73, 0x65, 0x32, 0x2f, 0x4d, 0x61,
  0x74, 0x4d, 0x75, 0x6c, 0x00, 0x00, 0x00, 0x00, 0x08, 0xfa, 0xff, 0xff,
  0x66, 0xfb, 0xff, 0xff, 0x04, 0x00, 0x00, 0x00, 0xc0, 0x03, 0x00, 0x00,
  0xc3, 0x71, 0x3b, 0xbc, 0x53, 0xed, 0x85, 0x3f, 0x9f, 0x65, 0xa9, 0xbe,
  0xc6, 0x6e, 0x86, 0x3f, 0x16, 0xc8, 0xf2, 0x3f, 0x56, 0xc5, 0x77, 0xbf,
  0x8b, 0x8c, 0x0f, 0x3f, 0x04, 0x5c, 0x45, 0x3f, 0xfc, 0xca, 0x70, 0xbd,
  0x44, 0x2e, 0x9e, 0x3d, 0xd5, 0x02, 0xfe, 0xbc, 0x9d, 0xd9, 0x01, 0x3e,
  0xae, 0x62, 0x9c, 0x3e, 0xaa, 0xc8, 0xec, 0xbe, 0x45, 0x79, 0x59, 0xbf,
  0x22, 0xcb, 0x80, 0x3e, 0x58, 0x19, 0x40, 0x3d, 0x10, 0xb8, 0x98, 0x3f,
  0x8a, 0xd6, 0xd8, 0xbe, 0x82, 0x03, 0x69, 0x3e, 0x54, 0xec, 0x0d, 0xbf,
  0x54, 0x2e, 0xd2, 0x3e, 0x2c, 0x70, 0x4d, 0x3f, 0xf0, 0x51, 0xd0, 0x3e,
  0x34, 0x22, 0xbe, 0x3d, 0x4d, 0x77, 0x7b, 0x3f, 0xb6, 0xda, 0x40, 0x3e,
  0x79, 0x64, 0x28, 0xbe, 0xf9, 0x4e, 0x70, 0xbf, 0xf9, 0x02, 0x99, 0x3d,
  0x2f, 0xc7, 0x80, 0x3f, 0x2d, 0xca, 0xde, 0x3d, 0x96, 0x80, 0xd6, 0xbd,
  0x18, 0xe8, 0xea, 0xbf, 0xe1, 0x33, 0x67, 0x3d, 0xc2, 0xf8, 0x21, 0xbe,
  0x13, 0xa8, 0x41, 0x3f, 0xda, 0x5a, 0xa0, 0x3f, 0x71, 0x6b, 0x83, 0xbf,
  0x02, 0x3e, 0xf2, 0xbe, 0xef, 0xff, 0x4a, 0x3d, 0xd9, 0xa0, 0xd1, 0x3e,
  0x1d, 0xab, 0xdc, 0x3b, 0x9b, 0x54, 0xba, 0xbe, 0x6f, 0xf1, 0x8e, 0xbf,
  0xb7, 0x8f, 0x0c, 0x3f, 0xff, 0xe8, 0x67, 0xbe, 0x3b, 0xdc, 0xad, 0xbe,
  0x5a, 0xfd, 0x1f, 0x3d, 0xd3, 0x36, 0xcf, 0x3d, 0x1e, 0x74, 0x0d, 0xbe,
  0xa0, 0xc1, 0x96, 0xbd, 0x8e, 0xce, 0x0d, 0x3e, 0xf1, 0x74, 0xda, 0xbd,
  0x52, 0x15, 0x08, 0xbf, 0xc0, 0xea, 0x1e, 0x3e, 0xef, 0x0f, 0x59, 0xbd,
  0x18, 0x54, 0x8a, 0x3f, 0xe6, 0xce, 0x42, 0x3d, 0x73, 0xe8, 0x9e, 0x3e,
  0xb9, 0xbe, 0x22, 0xbf, 0xb0, 0x1a, 0xa1, 0xbe, 0x94, 0xd2, 0xb0, 0x3f,
  0xd7, 0xc0, 0xee, 0x3e, 0x4f, 0x36, 0x06, 0xbe, 0x08, 0x92, 0x09, 0xbe,
  0x02, 0xd6, 0xbf, 0xbe, 0x8b, 0xc6, 0xaf, 0x3e, 0x61, 0x7c, 0x82, 0xbf,
  0x4d, 0x52, 0x8d, 0x3f, 0x99, 0x20, 0x07, 0x3f, 0xce, 0x7c, 0x1a, 0x3e,
  0x42, 0x78, 0x4a, 0xbe, 0xf6, 0x15, 0x5d, 0xbf, 0xe0, 0xae, 0x29, 0xbd,
  0x20, 0x43, 0x77, 0x3d, 0x8e, 0xde, 0x88, 0x3f, 0x1e, 0x51, 0xb7, 0xbd,
  0x6f, 0x3e, 0xfe, 0x3d, 0x19, 0x23, 0xed, 0x3d, 0x32, 0xa4, 0x4c, 0xbe,
  0xbe, 0x3e, 0x92, 0xbd, 0x73, 0x8d, 0x95, 0xbe, 0x30, 0xfb, 0xe0, 0x3e,
  0x0c, 0x9c, 0x9b, 0xbf, 0xdf, 0x74, 0xb8, 0x3f, 0xd8, 0x98, 0xd5, 0x3e,
  0x01, 0x4c, 0x16, 0x3e, 0x23, 0x43, 0x8e, 0xbe, 0xb1, 0x65, 0xae, 0xbe,
  0x26, 0x14, 0x42, 0xbd, 0x5c, 0x2a, 0x15, 0xbf, 0x68, 0x86, 0x04, 0xbf,
  0xde, 0xa4, 0xc0, 0xbd, 0x57, 0x47, 0x1b, 0xbf, 0xef, 0x1a, 0x76, 0xbf,
  0x11, 0xec, 0x46, 0xbe, 0x86, 0x2d, 0x10, 0xbf, 0x09, 0xe2, 0xcd, 0xbe,
  0xc2, 0xf6, 0xbf, 0x3d, 0xf5, 0xcc, 0xc8, 0x3d, 0x7e, 0x3a, 0x30, 0x3f,
  0xd3, 0xed, 0x32, 0xbf, 0x8a, 0x89, 0x13, 0x3e, 0xd0, 0x61, 0x27, 0x3e,
  0x84, 0x68, 0x38, 0xbf, 0x78, 0x76, 0xfa, 0x3e, 0x7e, 0x43, 0xaa, 0xbe,
  0x98, 0x3e, 0xcf, 0x3f, 0x5f, 0xb7, 0x8e, 0xbf, 0x16, 0x99, 0x8e, 0xbf,
  0x23, 0x86, 0x50, 0x3e, 0xbb, 0xbb, 0xa2, 0xbd, 0xf1, 0x7c, 0x42, 0xbf,
  0x68, 0x9f, 0x4d, 0x3e, 0xfc, 0xb5, 0x2b, 0xbf, 0xef, 0x24, 0x73, 0xbf,
  0xd3, 0x4e, 0x09, 0x3e, 0xdb, 0x6f, 0x07, 0xbf, 0x98, 0xf9, 0x1d, 0xbf,
  0x55, 0x89, 0x2c, 0x3e, 0xaf, 0x00, 0x6d, 0xbe, 0x8b, 0xa2, 0xdf, 0x3d,
  0x2e, 0x99, 0x52, 0xbf, 0x13, 0xeb, 0x78, 0xbf, 0x88, 0x28, 0xd6, 0x3e,
  0x0e, 0xc3, 0x1c, 0xbf, 0x08, 0x9c, 0x0e, 0xbf, 0x59, 0xcd, 0x9b, 0x3c,
  0x14, 0x4b, 0x3f, 0xbf, 0xd0, 0xc7, 0x39, 0x3e, 0x60, 0x3e, 0x6f, 0xbe,
  0xd3, 0xdb, 0xd8, 0x3f, 0x92, 0x0d, 0x1f, 0xbf, 0x4f, 0x5e, 0xf7, 0xbe,
  0x3e, 0x58, 0x2f, 0x3b, 0x11, 0xc0, 0x84, 0x3b, 0x73, 0xde, 0x7e, 0x3f,
  0xb7, 0xd7, 0x24, 0xbe, 0x40, 0xd9, 0x10, 0x3f, 0x7d, 0xb2, 0xdf, 0xbd,
  0x38, 0x2e, 0x1b, 0xbf, 0xa7, 0xaf, 0x97, 0x3f, 0x6a, 0x0c, 0x44, 0x3e,
  0xe0, 0xd5, 0x81, 0x3d, 0xa7, 0x5e, 0x91, 0x3e, 0xd2, 0xcc, 0xba, 0x3d,
  0x99, 0xdc, 0x31, 0xbe, 0xb8, 0xf8, 0xfc, 0x3f, 0xce, 0xc9, 0x8b, 0xbf,
  0x18, 0xbb, 0x5e, 0xbe, 0xfc, 0x76, 0xb9, 0x3e, 0x2a, 0x4c, 0x83, 0xbd,
  0xdd, 0xb2, 0xcb, 0x3f, 0x57, 0x9a, 0x9f, 0xbe, 0x2a, 0xd3, 0x7e, 0xbc,
  0x0c, 0x31, 0x53, 0x3d, 0x47, 0x01, 0xd9, 0xbe, 0x6c, 0x9a, 0xb3, 0x3f,
  0x2d, 0x98, 0xc5, 0x3e, 0xad, 0x26, 0x0a, 0x3d, 0x5a, 0xbc, 0x5c, 0xbf,
  0x8a, 0xa2, 0x44, 0x3d, 0x9b, 0x5a, 0x1b, 0xbf, 0xd6, 0x57, 0x49, 0xbf,
  0x89, 0xec, 0xa8, 0x3e, 0x2a, 0x5b, 0x36, 0xbf, 0xf7, 0x83, 0xe4, 0xbe,
  0xe5, 0xc8, 0x9f, 0xbe, 0x66, 0x50, 0x5b, 0xbf, 0x96, 0x70, 0xa1, 0xbe,
  0x91, 0x1b, 0xeb, 0xbd, 0xb9, 0x0d, 0x99, 0x3e, 0x95, 0x97, 0x8a, 0xbe,
  0x3a, 0x13, 0x92, 0xbf, 0x31, 0xa6, 0xcc, 0xbd, 0x15, 0x8e, 0x4e, 0x3e,
  0x10, 0x68, 0x9e, 0xbf, 0xf3, 0x38, 0x53, 0x3e, 0xea, 0x2b, 0xa2, 0xbf,
  0x33, 0x63, 0xea, 0xbf, 0xe8, 0x9e, 0x43, 0x3f, 0xdc, 0xb4, 0x15, 0xbf,
  0x84, 0xb7, 0x0f, 0xbf, 0x2e, 0x2d, 0x15, 0x3d, 0x7b, 0xab, 0xc1, 0xbe,
  0x5e, 0x88, 0x0a, 0xbc, 0x14, 0x52, 0xe5, 0xbe, 0x47, 0x36, 0x1b, 0x3e,
  0x3b, 0x3e, 0x22, 0x3e, 0x77, 0x13, 0xdb, 0xbd, 0xcf, 0x9a, 0x0a, 0xbd,
  0x29, 0xba, 0xb1, 0xbd, 0x1d, 0xbd, 0xc6, 0xbf, 0x43, 0x49, 0xc2, 0x3d,
  0x82, 0xb5, 0xc0, 0xbe, 0xfb, 0x87, 0xd8, 0x3e, 0xd9, 0x74, 0xcc, 0x3e,
  0xee, 0x0b, 0x00, 0xc0, 0x08, 0x2d, 0x25, 0xbf, 0x64, 0x00, 0x17, 0x3e,
  0xbd, 0x36, 0x25, 0xbd, 0x1e, 0x8e, 0x64, 0x3e, 0x76, 0x2f, 0xbe, 0xbe,
  0x1c, 0xb8, 0xb6, 0x3e, 0x7f, 0xbe, 0xa0, 0xbe, 0x56, 0x4d, 0x7e, 0x3f,
  0x9d, 0x90, 0xa6, 0x3e, 0xc7, 0xd0, 0xa0, 0x3e, 0x19, 0x36, 0x76, 0xbf,
  0x3f, 0xcc, 0x35, 0xbe, 0x6f, 0x70, 0xca, 0xbe, 0x7b, 0xf3, 0x57, 0xbf,
  0xd3, 0xcd, 0x07, 0x3f, 0x1e, 0xbe, 0x59, 0xbe, 0x1a, 0x8a, 0x05, 0xbf,
  0x5a, 0x3c, 0x7e, 0x3d, 0xf7, 0x2d, 0x1f, 0xbd, 0xa7, 0xf8, 0x8f, 0xbd,
  0x85, 0x46, 0x0d, 0x3e, 0xd2, 0xcf, 0x7d, 0xbe, 0x51, 0x45, 0x5b, 0x3f,
  0x01, 0x38, 0xb1, 0xbe, 0x2d, 0xb6, 0xc9, 0x3e, 0xe4, 0x7b, 0x4f, 0xbe,
  0x3a, 0x89, 0x9b, 0xbe, 0x97, 0x24, 0x1b, 0x3d, 0x86, 0xd0, 0xcf, 0x3e,
  0x31, 0x4b, 0xee, 0x3f, 0x83, 0xe2, 0x2d, 0xbf, 0xf7, 0x03, 0x60, 0x3c,
  0x10, 0x07, 0x50, 0x3f, 0xcc, 0xeb, 0x2b, 0xbc, 0x46, 0xd2, 0x46, 0x3f,
  0xc8, 0xfa, 0xd3, 0xbc, 0x17, 0xbb, 0x09, 0x3f, 0x5b, 0x8a, 0x43, 0x3e,
  0xe3, 0x66, 0xc8, 0xbc, 0x6c, 0x72, 0xa3, 0x3f, 0x31, 0xb6, 0x2b, 0x3e,
  0xa6, 0xfe, 0xff, 0xff, 0x10, 0x00, 0x00, 0x00, 0x04, 0x00, 0x00, 0x00,
  0x14, 0x00, 0x00, 0x00, 0x38, 0x00, 0x00, 0x00, 0x02, 0x00, 0x00, 0x00,
  0x1e, 0x00, 0x00, 0x00, 0x08, 0x00, 0x00, 0x00, 0x20, 0x00, 0x00, 0x00,
  0x73, 0x65, 0x71, 0x75, 0x65, 0x6e, 0x74, 0x69, 0x61, 0x6c, 0x5f, 0x31,
  0x2f, 0x64, 0x65, 0x6e, 0x73, 0x65, 0x5f, 0x44, 0x65, 0x6e, 0x73, 0x65,
  0x31, 0x2f, 0x4d, 0x61, 0x74, 0x4d, 0x75, 0x6c, 0x00, 0x00, 0x00, 0x00,
  0x20, 0xfe, 0xff, 0xff, 0x7e, 0xff, 0xff, 0xff, 0x04, 0x00, 0x00, 0x00,
  0x10, 0x00, 0x00, 0x00, 0xd0, 0x1f, 0x35, 0xbe, 0xd9, 0x43, 0x03, 0xbf,
  0x4d, 0x95, 0x16, 0x3e, 0x53, 0x80, 0xec, 0x3d, 0x0e, 0xff, 0xff, 0xff,
  0x10, 0x00, 0x00, 0x00, 0x03, 0x00, 0x00, 0x00, 0x10, 0x00, 0x00, 0x00,
  0x50, 0x00, 0x00, 0x00, 0x01, 0x00, 0x00, 0x00, 0x04, 0x00, 0x00, 0x00,
  0x39, 0x00, 0x00, 0x00, 0x73, 0x65, 0x71, 0x75, 0x65, 0x6e, 0x74, 0x69,
  0x61, 0x6c, 0x5f, 0x31, 0x2f, 0x64, 0x65, 0x6e, 0x73, 0x65, 0x5f, 0x44,
  0x65, 0x6e, 0x73, 0x65, 0x32, 0x2f, 0x42, 0x69, 0x61, 0x73, 0x41, 0x64,
  0x64, 0x2f, 0x52, 0x65, 0x61, 0x64, 0x56, 0x61, 0x72, 0x69, 0x61, 0x62,
  0x6c, 0x65, 0x4f, 0x70, 0x2f, 0x72, 0x65, 0x73, 0x6f, 0x75, 0x72, 0x63,
  0x65, 0x00, 0x00, 0x00, 0x04, 0x00, 0x06, 0x00, 0x04, 0x00, 0x00, 0x00,
  0x00, 0x00, 0x06, 0x00, 0x08, 0x00, 0x04, 0x00, 0x06, 0x00, 0x00, 0x00,
  0x04, 0x00, 0x00, 0x00, 0x78, 0x00, 0x00, 0x00, 0xba, 0x89, 0x13, 0xbf,
  0x78, 0x12, 0x9d, 0x3d, 0x1b, 0x3c, 0x1d, 0xbf, 0x19, 0x54, 0x00, 0x3e,
  0xac, 0x4b, 0x21, 0xbe, 0xbe, 0xbc, 0x17, 0x3e, 0xf6, 0x9a, 0xed, 0x3c,
  0x3b, 0x0a, 0xc0, 0xbe, 0x85, 0x4a, 0x76, 0xbd, 0xc7, 0x79, 0x91, 0xbd,
  0xbb, 0x64, 0xc7, 0xbb, 0x3f, 0xe5, 0x05, 0x3f, 0x0f, 0xf1, 0x12, 0xbd,
  0xdd, 0x39, 0xb6, 0x3d, 0x71, 0x36, 0x09, 0x3f, 0x17, 0x89, 0xd2, 0x3e,
  0xd0, 0x7e, 0x8f, 0xbd, 0x92, 0xd7, 0xbb, 0xbe, 0x76, 0x98, 0xa1, 0xbe,
  0x77, 0x84, 0x0e, 0xbf, 0x9f, 0x13, 0x08, 0x3f, 0xcf, 0x40, 0x97, 0x3e,
  0x51, 0xcb, 0x2e, 0x3f, 0x11, 0x71, 0x57, 0xbb, 0x49, 0x81, 0x77, 0x3f,
  0x4f, 0x91, 0x5f, 0xbe, 0x49, 0xa3, 0xf5, 0x3d, 0x37, 0xe2, 0x9b, 0x3a,
  0x83, 0xd7, 0xa3, 0xbe, 0xb0, 0xae, 0x37, 0xbf, 0x00, 0x00, 0x0e, 0x00,
  0x14, 0x00, 0x04, 0x00, 0x00, 0x00, 0x08, 0x00, 0x0c, 0x00, 0x10, 0x00,
  0x0e, 0x00, 0x00, 0x00, 0x10, 0x00, 0x00, 0x00, 0x02, 0x00, 0x00, 0x00,
  0x10, 0x00, 0x00, 0x00, 0x4c, 0x00, 0x00, 0x00, 0x01, 0x00, 0x00, 0x00,
  0x1e, 0x00, 0x00, 0x00, 0x39, 0x00, 0x00, 0x00, 0x73, 0x65, 0x71, 0x75,
  0x65, 0x6e, 0x74, 0x69, 0x61, 0x6c, 0x5f, 0x31, 0x2f, 0x64, 0x65, 0x6e,
  0x73, 0x65, 0x5f, 0x44, 0x65, 0x6e, 0x73, 0x65, 0x31, 0x2f, 0x42, 0x69,
  0x61, 0x73, 0x41, 0x64, 0x64, 0x2f, 0x52, 0x65, 0x61, 0x64, 0x56, 0x61,
  0x72, 0x69, 0x61, 0x62, 0x6c, 0x65, 0x4f, 0x70, 0x2f, 0x72, 0x65, 0x73,
  0x6f, 0x75, 0x72, 0x63, 0x65, 0x00, 0x00, 0x00, 0x9c, 0xff, 0xff, 0xff,
  0x14, 0x00, 0x18, 0x00, 0x04, 0x00, 0x00, 0x00, 0x08, 0x00, 0x0c, 0x00,
  0x10, 0x00, 0x00, 0x00, 0x00, 0x00, 0x14, 0x00, 0x14, 0x00, 0x00, 0x00,
  0x14, 0x00, 0x00, 0x00, 0x01, 0x00, 0x00, 0x00, 0x18, 0x00, 0x00, 0x00,
  0x38, 0x00, 0x00, 0x00, 0x28, 0x00, 0x00, 0x00, 0x02, 0x00, 0x00, 0x00,
  0x01, 0x00, 0x00, 0x00, 0x08, 0x00, 0x00, 0x00, 0x12, 0x00, 0x00, 0x00,
  0x64, 0x65, 0x6e, 0x73, 0x65, 0x5f, 0x44, 0x65, 0x6e, 0x73, 0x65, 0x31,
  0x5f, 0x69, 0x6e, 0x70, 0x75, 0x74, 0x00, 0x00, 0x02, 0x00, 0x00, 0x00,
  0xff, 0xff, 0xff, 0xff, 0x08, 0x00, 0x00, 0x00, 0xfc, 0xff, 0xff, 0xff,
  0x04, 0x00, 0x04, 0x00, 0x04, 0x00, 0x00, 0x00
};
unsigned int model_tflite_len = 3020;
