#pragma once

const unsigned char model_tflite[] = {
  0x1c, 0x00, 0x00, 0x00, 0x54, 0x46, 0x4c, 0x33, 0x00, 0x00, 0x12, 0x00,
  0x1c, 0x00, 0x04, 0x00, 0x08, 0x00, 0x0c, 0x00, 0x10, 0x00, 0x14, 0x00,
  0x00, 0x00, 0x18, 0x00, 0x12, 0x00, 0x00, 0x00, 0x03, 0x00, 0x00, 0x00,
  0x14, 0x00, 0x00, 0x00, 0x24, 0x00, 0x00, 0x00, 0xc4, 0x00, 0x00, 0x00,
  0x24, 0x00, 0x00, 0x00, 0x6c, 0x00, 0x00, 0x00, 0x04, 0x00, 0x00, 0x00,
  0x50, 0x05, 0x00, 0x00, 0x54, 0x03, 0x00, 0x00, 0xb8, 0x02, 0x00, 0x00,
  0x08, 0x02, 0x00, 0x00, 0x01, 0x00, 0x00, 0x00, 0xc4, 0x00, 0x00, 0x00,
  0x12, 0x00, 0x00, 0x00, 0x1c, 0x10, 0x00, 0x00, 0x18, 0x10, 0x00, 0x00,
  0x10, 0x0f, 0x00, 0x00, 0x84, 0x0e, 0x00, 0x00, 0x9c, 0x0d, 0x00, 0x00,
  0x1c, 0x0d, 0x00, 0x00, 0xa8, 0x0c, 0x00, 0x00, 0x6c, 0x0a, 0x00, 0x00,
  0x30, 0x08, 0x00, 0x00, 0x8c, 0x07, 0x00, 0x00, 0x28, 0x06, 0x00, 0x00,
  0xf0, 0x0f, 0x00, 0x00, 0xec, 0x0f, 0x00, 0x00, 0xe8, 0x0f, 0x00, 0x00,
  0xe4, 0x0f, 0x00, 0x00, 0xe0, 0x0f, 0x00, 0x00, 0xdc, 0x0f, 0x00, 0x00,
  0x38, 0x00, 0x00, 0x00, 0x01, 0x00, 0x00, 0x00, 0x0c, 0x00, 0x00, 0x00,
  0x08, 0x00, 0x0c, 0x00, 0x04, 0x00, 0x08, 0x00, 0x08, 0x00, 0x00, 0x00,
  0x08, 0x00, 0x00, 0x00, 0x11, 0x00, 0x00, 0x00, 0x13, 0x00, 0x00, 0x00,
  0x6d, 0x69, 0x6e, 0x5f, 0x72, 0x75, 0x6e, 0x74, 0x69, 0x6d, 0x65, 0x5f,
  0x76, 0x65, 0x72, 0x73, 0x69, 0x6f, 0x6e, 0x00, 0x6a, 0xf1, 0xff, 0xff,
  0x04, 0x00, 0x00, 0x00, 0x10, 0x00, 0x00, 0x00, 0x31, 0x2e, 0x35, 0x2e,
  0x30, 0x00, 0x00, 0x00, 0x00, 0x00, 0x00, 0x00, 0x00, 0x00, 0x00, 0x00,
  0x0f, 0x00, 0x00, 0x00, 0x4d, 0x4c, 0x49, 0x52, 0x20, 0x43, 0x6f, 0x6e,
  0x76, 0x65, 0x72, 0x74, 0x65, 0x64, 0x2e, 0x00, 0x00, 0x00, 0x0e, 0x00,
  0x18, 0x00, 0x04, 0x00, 0x08, 0x00, 0x0c, 0x00, 0x10, 0x00, 0x14, 0x00,
  0x0e, 0x00, 0x00, 0x00, 0x14, 0x00, 0x00, 0x00, 0x54, 0x00, 0x00, 0x00,
  0x58, 0x00, 0x00, 0x00, 0x5c, 0x00, 0x00, 0x00, 0x74, 0x00, 0x00, 0x00,
  0x10, 0x00, 0x00, 0x00, 0xe0, 0x0e, 0x00, 0x00, 0x68, 0x0e, 0x00, 0x00,
  0xcc, 0x0d, 0x00, 0x00, 0x4c, 0x0d, 0x00, 0x00, 0x64, 0x0c, 0x00, 0x00,
  0xf8, 0x0b, 0x00, 0x00, 0x84, 0x0b, 0x00, 0x00, 0x48, 0x09, 0x00, 0x00,
  0x04, 0x07, 0x00, 0x00, 0x60, 0x06, 0x00, 0x00, 0x40, 0x04, 0x00, 0x00,
  0xe0, 0x02, 0x00, 0x00, 0x40, 0x02, 0x00, 0x00, 0xa4, 0x01, 0x00, 0x00,
  0xf4, 0x00, 0x00, 0x00, 0x70, 0x00, 0x00, 0x00, 0x01, 0x00, 0x00, 0x00,
  0x00, 0x00, 0x00, 0x00, 0x01, 0x00, 0x00, 0x00, 0x0f, 0x00, 0x00, 0x00,
  0x06, 0x00, 0x00, 0x00, 0xb4, 0x03, 0x00, 0x00, 0x78, 0x02, 0x00, 0x00,
  0xe4, 0x01, 0x00, 0x00, 0x38, 0x01, 0x00, 0x00, 0x8c, 0x00, 0x00, 0x00,
  0x10, 0x00, 0x00, 0x00, 0x04, 0x00, 0x00, 0x00, 0x6d, 0x61, 0x69, 0x6e,
  0x00, 0x00, 0x00, 0x00, 0xee, 0xfe, 0xff, 0xff, 0x00, 0x00, 0x00, 0x08,
  0x02, 0x00, 0x00, 0x00, 0x18, 0x00, 0x00, 0x00, 0x0c, 0x00, 0x00, 0x00,
  0x04, 0x00, 0x00, 0x00, 0x50, 0xf1, 0xff, 0xff, 0x01, 0x00, 0x00, 0x00,
  0x0f, 0x00, 0x00, 0x00, 0x03, 0x00, 0x00, 0x00, 0x0e, 0x00, 0x00, 0x00,
  0x07, 0x00, 0x00, 0x00, 0x04, 0x00, 0x00, 0x00, 0xe0, 0xf1, 0xff, 0xff,
  0x14, 0x00, 0x00, 0x00, 0x10, 0x00, 0x00, 0x00, 0x18, 0x00, 0x00, 0x00,
  0x30, 0x00, 0x00, 0x00, 0x20, 0x00, 0x00, 0x00, 0x02, 0x00, 0x00, 0x00,
  0x01, 0x00, 0x00, 0x00, 0x04, 0x00, 0x00, 0x00, 0x08, 0x00, 0x00, 0x00,
  0x49, 0x64, 0x65, 0x6e, 0x74, 0x69, 0x74, 0x79, 0x00, 0x00, 0x00, 0x00,
  0x02, 0x00, 0x00, 0x00, 0xff, 0xff, 0xff, 0xff, 0x04, 0x00, 0x00, 0x00,
  0xac, 0xf1, 0xff, 0xff, 0x66, 0xff, 0xff, 0xff, 0x00, 0x00, 0x00, 0x09,
  0x03, 0x00, 0x00, 0x00, 0x1c, 0x00, 0x00, 0x00, 0x10, 0x00, 0x00, 0x00,
  0x04, 0x00, 0x00, 0x00, 0xce, 0xf2, 0xff, 0xff, 0x00, 0x00, 0x80, 0x3f,
  0x01, 0x00, 0x00, 0x00, 0x0e, 0x00, 0x00, 0x00, 0x01, 0x00, 0x00, 0x00,
  0x0d, 0x00, 0x00, 0x00, 0xce, 0xfc, 0xff, 0xff, 0x00, 0x00, 0x00, 0x19,
  0x01, 0x00, 0x00, 0x00, 0x60, 0xf2, 0xff, 0xff, 0x14, 0x00, 0x00, 0x00,
  0x0f, 0x00, 0x00, 0x00, 0x18, 0x00, 0x00, 0x00, 0x48, 0x00, 0x00, 0x00,
  0x38, 0x00, 0x00, 0x00, 0x02, 0x00, 0x00, 0x00, 0x01, 0x00, 0x00, 0x00,
  0x1e, 0x00, 0x00, 0x00, 0x21, 0x00, 0x00, 0x00, 0x73, 0x65, 0x71, 0x75,
  0x65, 0x6e, 0x74, 0x69, 0x61, 0x6c, 0x5f, 0x31, 0x2f, 0x64, 0x65, 0x6e,
  0x73, 0x65, 0x5f, 0x44, 0x65, 0x6e, 0x73, 0x65, 0x31, 0x2f, 0x53, 0x6f,
  0x66, 0x74, 0x6d, 0x61, 0x78, 0x00, 0x00, 0x00, 0x02, 0x00, 0x00, 0x00,
  0xff, 0xff, 0xff, 0xff, 0x1e, 0x00, 0x00, 0x00, 0x54, 0xf3, 0xff, 0xff,
  0x00, 0x00, 0x0e, 0x00, 0x18, 0x00, 0x08, 0x00, 0x0c, 0x00, 0x10, 0x00,
  0x07, 0x00, 0x14, 0x00, 0x0e, 0x00, 0x00, 0x00, 0x00, 0x00, 0x00, 0x08,
  0x02, 0x00, 0x00, 0x00, 0x18, 0x00, 0x00, 0x00, 0x0c, 0x00, 0x00, 0x00,
  0x04, 0x00, 0x00, 0x00, 0x70, 0xf2, 0xff, 0xff, 0x01, 0x00, 0x00, 0x00,
  0x0d, 0x00, 0x00, 0x00, 0x03, 0x00, 0x00, 0x00, 0x0c, 0x00, 0x00, 0x00,
  0x06, 0x00, 0x00, 0x00, 0x03, 0x00, 0x00, 0x00, 0x7a, 0xfd, 0xff, 0xff,
  0x00, 0x00, 0x00, 0x09, 0x01, 0x00, 0x00, 0x00, 0x0c, 0xf3, 0xff, 0xff,
  0x14, 0x00, 0x00, 0x00, 0x0e, 0x00, 0x00, 0x00, 0x18, 0x00, 0x00, 0x00,
  0x48, 0x00, 0x00, 0x00, 0x38, 0x00, 0x00, 0x00, 0x02, 0x00, 0x00, 0x00,
  0x01, 0x00, 0x00, 0x00, 0x1e, 0x00, 0x00, 0x00, 0x21, 0x00, 0x00, 0x00,
  0x73, 0x65, 0x71, 0x75, 0x65, 0x6e, 0x74, 0x69, 0x61, 0x6c, 0x5f, 0x31,
  0x2f, 0x64, 0x65, 0x6e, 0x73, 0x65, 0x5f, 0x44, 0x65, 0x6e, 0x73, 0x65,
  0x31, 0x2f, 0x42, 0x69, 0x61, 0x73, 0x41, 0x64, 0x64, 0x00, 0x00, 0x00,
  0x02, 0x00, 0x00, 0x00, 0xff, 0xff, 0xff, 0xff, 0x1e, 0x00, 0x00, 0x00,
  0x00, 0xf4, 0xff, 0xff, 0x00, 0x00, 0x0a, 0x00, 0x10, 0x00, 0x04, 0x00,
  0x08, 0x00, 0x0c, 0x00, 0x0a, 0x00, 0x00, 0x00, 0x01, 0x00, 0x00, 0x00,
  0x10, 0x00, 0x00, 0x00, 0x04, 0x00, 0x00, 0x00, 0x01, 0x00, 0x00, 0x00,
  0x0c, 0x00, 0x00, 0x00, 0x02, 0x00, 0x00, 0x00, 0x0b, 0x00, 0x00, 0x00,
  0x05, 0x00, 0x00, 0x00, 0x12, 0xfe, 0xff, 0xff, 0x00, 0x00, 0x00, 0x16,
  0x01, 0x00, 0x00, 0x00, 0xa4, 0xf3, 0xff, 0xff, 0x14, 0x00, 0x00, 0x00,
  0x0d, 0x00, 0x00, 0x00, 0x18, 0x00, 0x00, 0x00, 0x4c, 0x00, 0x00, 0x00,
  0x3c, 0x00, 0x00, 0x00, 0x02, 0x00, 0x00, 0x00, 0x01, 0x00, 0x00, 0x00,
  0x04, 0x00, 0x00, 0x00, 0x25, 0x00, 0x00, 0x00, 0x73, 0x65, 0x71, 0x75,
  0x65, 0x6e, 0x74, 0x69, 0x61, 0x6c, 0x5f, 0x31, 0x2f, 0x66, 0x6c, 0x61,
  0x74, 0x74, 0x65, 0x6e, 0x5f, 0x46, 0x6c, 0x61, 0x74, 0x74, 0x65, 0x6e,
  0x31, 0x2f, 0x52, 0x65, 0x73, 0x68, 0x61, 0x70, 0x65, 0x00, 0x00, 0x00,
  0x02, 0x00, 0x00, 0x00, 0xff, 0xff, 0xff, 0xff, 0x04, 0x00, 0x00, 0x00,
  0x8c, 0xf3, 0xff, 0xff, 0xd6, 0xfe, 0xff, 0xff, 0x00, 0x00, 0x00, 0x01,
  0x24, 0x00, 0x00, 0x00, 0x18, 0x00, 0x00, 0x00, 0x04, 0x00, 0x00, 0x00,
  0xc8, 0xfe, 0xff, 0xff, 0x08, 0x00, 0x00, 0x00, 0x08, 0x00, 0x00, 0x00,
  0x00, 0x00, 0x01, 0x01, 0x01, 0x00, 0x00, 0x00, 0x0b, 0x00, 0x00, 0x00,
  0x03, 0x00, 0x00, 0x00, 0x0a, 0x00, 0x00, 0x00, 0x09, 0x00, 0x00, 0x00,
  0x02, 0x00, 0x00, 0x00, 0x40, 0xf4, 0xff, 0xff, 0x14, 0x00, 0x00, 0x00,
  0x0c, 0x00, 0x00, 0x00, 0x20, 0x00, 0x00, 0x00, 0xd8, 0x00, 0x00, 0x00,
  0xc0, 0x00, 0x00, 0x00, 0x04, 0x00, 0x00, 0x00, 0x01, 0x00, 0x00, 0x00,
  0x01, 0x00, 0x00, 0x00, 0x01, 0x00, 0x00, 0x00, 0x04, 0x00, 0x00, 0x00,
  0xa3, 0x00, 0x00, 0x00, 0x73, 0x65, 0x71, 0x75, 0x65, 0x6e, 0x74, 0x69,
  0x61, 0x6c, 0x5f, 0x31, 0x2f, 0x63, 0x6f, 0x6e, 0x76, 0x32, 0x64, 0x5f,
  0x43, 0x6f, 0x6e, 0x76, 0x32, 0x44, 0x32, 0x2f, 0x52, 0x65, 0x6c, 0x75,
  0x3b, 0x73, 0x65, 0x71, 0x75, 0x65, 0x6e, 0x74, 0x69, 0x61, 0x6c, 0x5f,
  0x31, 0x2f, 0x63, 0x6f, 0x6e, 0x76, 0x32, 0x64, 0x5f, 0x43, 0x6f, 0x6e,
  0x76, 0x32, 0x44, 0x32, 0x2f, 0x42, 0x69, 0x61, 0x73, 0x41, 0x64, 0x64,
  0x3b, 0x73, 0x65, 0x71, 0x75, 0x65, 0x6e, 0x74, 0x69, 0x61, 0x6c, 0x5f,
  0x31, 0x2f, 0x63, 0x6f, 0x6e, 0x76, 0x32, 0x64, 0x5f, 0x43, 0x6f, 0x6e,
  0x76, 0x32, 0x44, 0x32, 0x2f, 0x43, 0x6f, 0x6e, 0x76, 0x32, 0x44, 0x3b,
  0x73, 0x65, 0x71, 0x75, 0x65, 0x6e, 0x74, 0x69, 0x61, 0x6c, 0x5f, 0x31,
  0x2f, 0x63, 0x6f, 0x6e, 0x76, 0x32, 0x64, 0x5f, 0x43, 0x6f, 0x6e, 0x76,
  0x32, 0x44, 0x32, 0x2f, 0x42, 0x69, 0x61, 0x73, 0x41, 0x64, 0x64, 0x2f,
  0x52, 0x65, 0x61, 0x64, 0x56, 0x61, 0x72, 0x69, 0x61, 0x62, 0x6c, 0x65,
  0x4f, 0x70, 0x2f, 0x72, 0x65, 0x73, 0x6f, 0x75, 0x72, 0x63, 0x65, 0x00,
  0x04, 0x00, 0x00, 0x00, 0xff, 0xff, 0xff, 0xff, 0x01, 0x00, 0x00, 0x00,
  0x01, 0x00, 0x00, 0x00, 0x04, 0x00, 0x00, 0x00, 0xc4, 0xf5, 0xff, 0xff,
  0x00, 0x00, 0x0e, 0x00, 0x14, 0x00, 0x00, 0x00, 0x08, 0x00, 0x0c, 0x00,
  0x07, 0x00, 0x10, 0x00, 0x0e, 0x00, 0x00, 0x00, 0x00, 0x00, 0x00, 0x01,
  0x30, 0x00, 0x00, 0x00, 0x24, 0x00, 0x00, 0x00, 0x10, 0x00, 0x00, 0x00,
  0x0c, 0x00, 0x10, 0x00, 0x0e, 0x00, 0x04, 0x00, 0x08, 0x00, 0x0f, 0x00,
  0x0c, 0x00, 0x00, 0x00, 0x08, 0x00, 0x00, 0x00, 0x08, 0x00, 0x00, 0x00,
  0x00, 0x00, 0x01, 0x01, 0x01, 0x00, 0x00, 0x00, 0x0a, 0x00, 0x00, 0x00,
  0x03, 0x00, 0x00, 0x00, 0x00, 0x00, 0x00, 0x00, 0x08, 0x00, 0x00, 0x00,
  0x01, 0x00, 0x00, 0x00, 0x00, 0x00, 0x0a, 0x00, 0x0c, 0x00, 0x07, 0x00,
  0x00, 0x00, 0x08, 0x00, 0x0a, 0x00, 0x00, 0x00, 0x00, 0x00, 0x00, 0x03,
  0x01, 0x00, 0x00, 0x00, 0x9c, 0xf5, 0xff, 0xff, 0x14, 0x00, 0x00, 0x00,
  0x0b, 0x00, 0x00, 0x00, 0x20, 0x00, 0x00, 0x00, 0xfc, 0x00, 0x00, 0x00,
  0xe4, 0x00, 0x00, 0x00, 0x04, 0x00, 0x00, 0x00, 0x01, 0x00, 0x00, 0x00,
  0x04, 0x00, 0x00, 0x00, 0x04, 0x00, 0x00, 0x00, 0x04, 0x00, 0x00, 0x00,
  0xc6, 0x00, 0x00, 0x00, 0x73, 0x65, 0x71, 0x75, 0x65, 0x6e, 0x74, 0x69,
  0x61, 0x6c, 0x5f, 0x31, 0x2f, 0x63, 0x6f, 0x6e, 0x76, 0x32, 0x64, 0x5f,
  0x43, 0x6f, 0x6e, 0x76, 0x32, 0x44, 0x31, 0x2f, 0x52, 0x65, 0x6c, 0x75,
  0x3b, 0x73, 0x65, 0x71, 0x75, 0x65, 0x6e, 0x74, 0x69, 0x61, 0x6c, 0x5f,
  0x31, 0x2f, 0x63, 0x6f, 0x6e, 0x76, 0x32, 0x64, 0x5f, 0x43, 0x6f, 0x6e,
  0x76, 0x32, 0x44, 0x31, 0x2f, 0x42, 0x69, 0x61, 0x73, 0x41, 0x64, 0x64,
  0x3b, 0x73, 0x65, 0x71, 0x75, 0x65, 0x6e, 0x74, 0x69, 0x61, 0x6c, 0x5f,
  0x31, 0x2f, 0x63, 0x6f, 0x6e, 0x76, 0x32, 0x64, 0x5f, 0x43, 0x6f, 0x6e,
  0x76, 0x32, 0x44, 0x32, 0x2f, 0x43, 0x6f, 0x6e, 0x76, 0x32, 0x44, 0x3b,
  0x73, 0x65, 0x71, 0x75, 0x65, 0x6e, 0x74, 0x69, 0x61, 0x6c, 0x5f, 0x31,
  0x2f, 0x63, 0x6f, 0x6e, 0x76, 0x32, 0x64, 0x5f, 0x43, 0x6f, 0x6e, 0x76,
  0x32, 0x44, 0x31, 0x2f, 0x43, 0x6f, 0x6e, 0x76, 0x32, 0x44, 0x3b, 0x73,
  0x65, 0x71, 0x75, 0x65, 0x6e, 0x74, 0x69, 0x61, 0x6c, 0x5f, 0x31, 0x2f,
  0x63, 0x6f, 0x6e, 0x76, 0x32, 0x64, 0x5f, 0x43, 0x6f, 0x6e, 0x76, 0x32,
  0x44, 0x31, 0x2f, 0x42, 0x69, 0x61, 0x73, 0x41, 0x64, 0x64, 0x2f, 0x52,
  0x65, 0x61, 0x64, 0x56, 0x61, 0x72, 0x69, 0x61, 0x62, 0x6c, 0x65, 0x4f,
  0x70, 0x2f, 0x72, 0x65, 0x73, 0x6f, 0x75, 0x72, 0x63, 0x65, 0x00, 0x00,
  0x04, 0x00, 0x00, 0x00, 0xff, 0xff, 0xff, 0xff, 0x04, 0x00, 0x00, 0x00,
  0x04, 0x00, 0x00, 0x00, 0x04, 0x00, 0x00, 0x00, 0x34, 0xf6, 0xff, 0xff,
  0x3e, 0xf7, 0xff, 0xff, 0x04, 0x00, 0x00, 0x00, 0x00, 0x01, 0x00, 0x00,
  0x83, 0xc3, 0x68, 0xbe, 0xa8, 0x97, 0x6b, 0x3e, 0xdf, 0x82, 0x60, 0xbe,
  0xc1, 0xfd, 0x90, 0x3b, 0xb4, 0x7d, 0xd4, 0xbd, 0x5b, 0x5e, 0x27, 0xbe,
  0xbc, 0x21, 0x7c, 0x3e, 0x3b, 0x5a, 0xd4, 0xbd, 0xa9, 0x02, 0x8c, 0xbe,
  0x29, 0xc8, 0x22, 0x3e, 0x51, 0x96, 0x92, 0xbe, 0x4e, 0xf4, 0x04, 0xbe,
  0x9e, 0xe2, 0x61, 0xbe, 0x8e, 0xfc, 0xdb, 0x3d, 0x6d, 0x40, 0x87, 0xbe,
  0x10, 0x80, 0x6a, 0x3e, 0x4a, 0x04, 0xaa, 0xbe, 0x07, 0xee, 0x23, 0xbe,
  0x39, 0x11, 0xbb, 0x3e, 0x8b, 0xa2, 0x69, 0xbe, 0x0e, 0x27, 0x9b, 0xbe,
  0x2c, 0x69, 0x8e, 0xbc, 0xe8, 0x0f, 0x9b, 0x3e, 0x2e, 0xad, 0xa0, 0x3d,
  0xe3, 0x49, 0x32, 0x3f, 0xe1, 0x9a, 0x8b, 0xbd, 0x21, 0x9f, 0xbf, 0x3c,
  0xcc, 0x05, 0xa1, 0xbe, 0xa5, 0x55, 0x68, 0xbd, 0x15, 0x4d, 0x85, 0x3e,
  0x31, 0xbc, 0xee, 0x3d, 0xb4, 0x01, 0xcd, 0x3c, 0xb3, 0x1b, 0xf9, 0xbd,
  0x38, 0x10, 0xdc, 0xbd, 0x0f, 0x09, 0x81, 0xbe, 0x2b, 0xf6, 0xf5, 0x3e,
  0xf9, 0xd1, 0x73, 0x3d, 0x28, 0x41, 0xe0, 0x3d, 0x6d, 0x7c, 0x91, 0x3e,
  0x9b, 0x04, 0x3b, 0xbe, 0x08, 0x2c, 0x56, 0xbe, 0xba, 0xd7, 0xaa, 0xbe,
  0x9b, 0xf8, 0x78, 0x3e, 0x70, 0x0d, 0x1f, 0x3d, 0x29, 0x1a, 0x17, 0xbe,
  0x39, 0xaf, 0x3c, 0x3e, 0x84, 0x0f, 0x4a, 0xbd, 0x40, 0x0c, 0xb5, 0x3e,
  0x8f, 0xc7, 0xa8, 0x3e, 0x2d, 0xff, 0x9f, 0x3b, 0xdf, 0x25, 0x07, 0x3d,
  0x2d, 0x8b, 0xec, 0x3d, 0x14, 0xbb, 0xb5, 0xbe, 0xf5, 0x58, 0x5e, 0x3e,
  0xc6, 0xc3, 0x62, 0xbd, 0x26, 0x41, 0x0a, 0xbe, 0x82, 0xff, 0xc5, 0xbe,
  0x00, 0xa9, 0x1f, 0x3e, 0x1a, 0x9c, 0xb2, 0x3e, 0x1c, 0xcf, 0x97, 0xbe,
  0x28, 0x4e, 0xeb, 0xbe, 0xd9, 0x56, 0xd9, 0xbd, 0x4f, 0xcd, 0x5a, 0xbe,
  0x4a, 0x62, 0xad, 0xbd, 0x26, 0xf8, 0xff, 0xff, 0x10, 0x00, 0x00, 0x00,
  0x0a, 0x00, 0x00, 0x00, 0x1c, 0x00, 0x00, 0x00, 0x40, 0x00, 0x00, 0x00,
  0x04, 0x00, 0x00, 0x00, 0x04, 0x00, 0x00, 0x00, 0x02, 0x00, 0x00, 0x00,
  0x02, 0x00, 0x00, 0x00, 0x04, 0x00, 0x00, 0x00, 0x22, 0x00, 0x00, 0x00,
  0x73, 0x65, 0x71, 0x75, 0x65, 0x6e, 0x74, 0x69, 0x61, 0x6c, 0x5f, 0x31,
  0x2f, 0x63, 0x6f, 0x6e, 0x76, 0x32, 0x64, 0x5f, 0x43, 0x6f, 0x6e, 0x76,
  0x32, 0x44, 0x32, 0x2f, 0x43, 0x6f, 0x6e, 0x76, 0x32, 0x44, 0x00, 0x00,
  0x94, 0xf7, 0xff, 0xff, 0x9e, 0xf8, 0xff, 0xff, 0x04, 0x00, 0x00, 0x00,
  0x40, 0x00, 0x00, 0x00, 0xf0, 0xb4, 0x8c, 0x3f, 0xdc, 0xa5, 0xf8, 0x3e,
  0xb7, 0xf2, 0x3a, 0x3e, 0x54, 0x2b, 0xfe, 0x3d, 0xb0, 0xec, 0xfd, 0x3d,
  0x38, 0x35, 0x09, 0xbe, 0xf7, 0x72, 0x13, 0xbf, 0x4c, 0x5f, 0x1e, 0xbf,
  0x99, 0x58, 0x9b, 0xbe, 0xe7, 0xa4, 0x6d, 0x3e, 0xce, 0x10, 0x51, 0x3d,
  0xa7, 0x7d, 0xe3, 0xbd, 0x0b, 0x1b, 0xea, 0x3d, 0x0f, 0x28, 0x3a, 0x3f,
  0x9f, 0xdf, 0x00, 0x3e, 0xcd, 0x70, 0x5b, 0xbf, 0xc6, 0xf8, 0xff, 0xff,
  0x10, 0x00, 0x00, 0x00, 0x09, 0x00, 0x00, 0x00, 0x1c, 0x00, 0x00, 0x00,
  0x40, 0x00, 0x00, 0x00, 0x04, 0x00, 0x00, 0x00, 0x04, 0x00, 0x00, 0x00,
  0x02, 0x00, 0x00, 0x00, 0x02, 0x00, 0x00, 0x00, 0x01, 0x00, 0x00, 0x00,
  0x22, 0x00, 0x00, 0x00, 0x73, 0x65, 0x71, 0x75, 0x65, 0x6e, 0x74, 0x69,
  0x61, 0x6c, 0x5f, 0x31, 0x2f, 0x63, 0x6f, 0x6e, 0x76, 0x32, 0x64, 0x5f,
  0x43, 0x6f, 0x6e, 0x76, 0x32, 0x44, 0x31, 0x2f, 0x43, 0x6f, 0x6e, 0x76,
  0x32, 0x44, 0x00, 0x00, 0x34, 0xf8, 0xff, 0xff, 0x3e, 0xf9, 0xff, 0xff,
  0x04, 0x00, 0x00, 0x00, 0xe0, 0x01, 0x00, 0x00, 0x55, 0x5e, 0x86, 0xbe,
  0x8a, 0xc4, 0x50, 0x3e, 0x5b, 0xac, 0x94, 0xbe, 0x6f, 0x32, 0x14, 0xbe,
  0x0f, 0x07, 0xaa, 0xbe, 0x7b, 0xcd, 0x0f, 0x3e, 0xeb, 0x70, 0x1d, 0xbe,
  0xd2, 0x0b, 0xce, 0xbd, 0x70, 0x74, 0x87, 0xbc, 0x8f, 0x88, 0x17, 0xbd,
  0xc5, 0x32, 0x43, 0xbc, 0xf0, 0x2e, 0xb4, 0xbd, 0xf7, 0xb1, 0x18, 0xbd,
  0x80, 0xe2, 0x29, 0x3c, 0xfe, 0x1f, 0x4f, 0x3e, 0x97, 0x85, 0xcf, 0x3d,
  0x6e, 0x51, 0xbd, 0x3c, 0x44, 0x1c, 0x77, 0x3e, 0xee, 0x36, 0x51, 0x3e,
  0x2e, 0xdc, 0xaf, 0x3e, 0x3f, 0xc9, 0x0c, 0x3c, 0xbd, 0x9b, 0x9f, 0xbd,
  0x49, 0x97, 0x89, 0xbe, 0xd0, 0x1c, 0xd5, 0x3d, 0x49, 0x0b, 0xa0, 0xbe,
  0x43, 0xd5, 0x1b, 0xbe, 0x59, 0x83, 0xad, 0xbd, 0xcf, 0x22, 0xe6, 0x3d,
  0x78, 0x81, 0x81, 0x3f, 0x2d, 0x4c, 0x1a, 0xbe, 0x7e, 0x27, 0xef, 0x3d,
  0x16, 0xbc, 0x37, 0x3a, 0xbe, 0xd6, 0x7c, 0xbe, 0xe8, 0xf5, 0x6f, 0x3d,
  0x1c, 0x5f, 0xba, 0x3e, 0x5b, 0x58, 0x47, 0x3e, 0x33, 0x74, 0x44, 0xbe,
  0xc6, 0x88, 0x90, 0x3e, 0xc9, 0xd0, 0x1b, 0xbe, 0xe0, 0xd2, 0xd3, 0xbe,
  0xba, 0x60, 0x21, 0xbd, 0xa0, 0x00, 0x1a, 0xbe, 0x16, 0xa6, 0x26, 0x3e,
  0xaa, 0x86, 0xc3, 0x3d, 0x30, 0x2b, 0xfe, 0xbd, 0x4b, 0x4f, 0x86, 0xbc,
  0xca, 0x6b, 0xea, 0x3d, 0xd8, 0x87, 0xa5, 0xbd, 0x4f, 0xbf, 0x9b, 0xbe,
  0xe3, 0x21, 0x05, 0x3c, 0xab, 0x4b, 0x1d, 0x3d, 0x72, 0x85, 0xab, 0x3e,
  0xc5, 0x32, 0x09, 0xbd, 0xbd, 0x72, 0x7f, 0x3e, 0x06, 0xe4, 0xaa, 0xbe,
  0x8f, 0xae, 0xa3, 0x3e, 0x4d, 0xc2, 0x0c, 0xbe, 0x0b, 0x3c, 0x84, 0x3e,
  0x3e, 0x81, 0x84, 0xbf, 0xe0, 0x07, 0x8f, 0xbe, 0x62, 0x0a, 0xa2, 0xbe,
  0x29, 0x67, 0x9f, 0x3e, 0x77, 0xdd, 0x4e, 0x3e, 0x61, 0xb2, 0x1c, 0x3e,
  0x15, 0xe4, 0xaa, 0xbe, 0x11, 0xb3, 0x0c, 0x3c, 0xbd, 0x82, 0x90, 0x3e,
  0x30, 0xd4, 0x24, 0x3e, 0xd9, 0xa3, 0x4a, 0x39, 0x0a, 0x71, 0x70, 0xbe,
  0x7a, 0xaa, 0x7f, 0xbe, 0xf3, 0xf5, 0xc7, 0x3d, 0x92, 0xc9, 0x9f, 0xbe,
  0x12, 0x0b, 0x19, 0x3e, 0xac, 0xf3, 0x38, 0xbe, 0x85, 0x75, 0xcc, 0x3c,
  0x83, 0x0c, 0x8a, 0xbc, 0xdb, 0x05, 0x2a, 0x3e, 0xd4, 0x55, 0x0e, 0x3e,
  0x41, 0x14, 0x06, 0xbe, 0xc3, 0xd9, 0x92, 0x3e, 0x37, 0xbc, 0x1e, 0x3d,
  0xde, 0x78, 0x2b, 0xbe, 0xf1, 0x5e, 0x97, 0x3e, 0x21, 0xde, 0x7d, 0xbe,
  0x2d, 0x32, 0x9e, 0x3d, 0xcb, 0x05, 0x6d, 0xbe, 0x8f, 0x62, 0x68, 0x3e,
  0x19, 0x23, 0x00, 0x3c, 0x97, 0x9f, 0xdd, 0x3c, 0x46, 0x60, 0xcb, 0xbc,
  0x3e, 0xc8, 0xcd, 0x3e, 0x1a, 0xc7, 0xf0, 0x3d, 0x9b, 0x80, 0xd6, 0xbd,
  0x16, 0x7e, 0x50, 0x3e, 0x7b, 0x07, 0x59, 0xbe, 0x5c, 0xbb, 0x14, 0xbe,
  0xb4, 0xf9, 0xb8, 0x3d, 0xc8, 0x77, 0xea, 0xbb, 0xeb, 0x6b, 0xbf, 0x3e,
  0x58, 0xc2, 0x74, 0x3e, 0x00, 0x4b, 0x84, 0xbe, 0xaa, 0x26, 0x34, 0xbe,
  0xd3, 0xfc, 0x88, 0xbe, 0x5c, 0xcd, 0xa0, 0x3d, 0x2e, 0xdf, 0x3c, 0xbe,
  0x06, 0x76, 0xf3, 0xbc, 0xa2, 0xeb, 0xc5, 0xbd, 0xad, 0xbf, 0xe9, 0xbd,
  0x5f, 0x09, 0x01, 0x3e, 0x8e, 0xe7, 0x2a, 0x3d, 0x0a, 0xc5, 0x10, 0xbe,
  0xf4, 0x81, 0x51, 0x3d, 0x26, 0x67, 0xb0, 0xbc, 0x2d, 0x02, 0x5e, 0x3e,
  0x78, 0x57, 0x63, 0xbe, 0x0d, 0xcc, 0xbf, 0x3e, 0xb1, 0xce, 0x89, 0x3e,
  0x42, 0x8f, 0xbf, 0x3c, 0x79, 0x23, 0xd4, 0x3d, 0x06, 0xfb, 0xff, 0xff,
  0x10, 0x00, 0x00, 0x00, 0x08, 0x00, 0x00, 0x00, 0x14, 0x00, 0x00, 0x00,
  0x38, 0x00, 0x00, 0x00, 0x02, 0x00, 0x00, 0x00, 0x04, 0x00, 0x00, 0x00,
  0x1e, 0x00, 0x00, 0x00, 0x20, 0x00, 0x00, 0x00, 0x73, 0x65, 0x71, 0x75,
  0x65, 0x6e, 0x74, 0x69, 0x61, 0x6c, 0x5f, 0x31, 0x2f, 0x64, 0x65, 0x6e,
  0x73, 0x65, 0x5f, 0x44, 0x65, 0x6e, 0x73, 0x65, 0x32, 0x2f, 0x4d, 0x61,
  0x74, 0x4d, 0x75, 0x6c, 0x00, 0x00, 0x00, 0x00, 0x6c, 0xfa, 0xff, 0xff,
  0x76, 0xfb, 0xff, 0xff, 0x04, 0x00, 0x00, 0x00, 0xe0, 0x01, 0x00, 0x00,
  0xc2, 0x63, 0xf8, 0x3e, 0x72, 0x3e, 0x0c, 0xbf, 0xac, 0xa1, 0x5a, 0xbe,
  0xa2, 0x0a, 0x32, 0x3d, 0x32, 0x0a, 0x11, 0x3f, 0x9d, 0x65, 0x25, 0x3e,
  0x9e, 0xd6, 0x19, 0x3f, 0xcf, 0x57, 0xcc, 0x3e, 0xb4, 0xdd, 0x52, 0x3e,
  0x6d, 0xc7, 0xe7, 0x3c, 0xd4, 0xa7, 0x12, 0x3f, 0x5e, 0x7e, 0x45, 0xbd,
  0x37, 0xb6, 0x76, 0x3e, 0xc5, 0x0b, 0xc2, 0xbc, 0x2d, 0xd3, 0x0a, 0x3f,
  0x99, 0x96, 0xb6, 0x3c, 0x66, 0x7d, 0x13, 0xbf, 0xfb, 0x0f, 0xc5, 0x3e,
  0xd3, 0xb7, 0xf1, 0xbd, 0xf1, 0x60, 0xb2, 0x3e, 0x64, 0x62, 0x22, 0xbe,
  0x14, 0xbe, 0xa8, 0x3e, 0xc5, 0xc8, 0x75, 0x3f, 0xdc, 0x4b, 0x95, 0x3e,
  0x42, 0x88, 0x92, 0xbe, 0xd6, 0x8f, 0x35, 0xbf, 0x6e, 0xa5, 0x68, 0xbf,
  0x2b, 0x89, 0x8a, 0x3e, 0x9e, 0xd8, 0x1f, 0xbe, 0x2c, 0xc5, 0x18, 0x3e,
  0x0b, 0xd9, 0x16, 0x3f, 0x9e, 0x17, 0x98, 0x3e, 0x61, 0xc6, 0x34, 0xbe,
  0x3c, 0x89, 0x15, 0xbf, 0x6b, 0x35, 0x33, 0x3f, 0xaa, 0x32, 0x44, 0xbe,
  0x63, 0x1d, 0xed, 0xbe, 0x7f, 0xfc, 0xa4, 0xbe, 0x02, 0x08, 0x3e, 0x3f,
  0xd2, 0x2f, 0x22, 0xbf, 0xd8, 0xe8, 0xfe, 0x3e, 0x7b, 0x24, 0xc3, 0xbd,
  0x17, 0x4c, 0xef, 0x3e, 0x0d, 0xba, 0xf6, 0x3e, 0x3e, 0x9d, 0x59, 0x3f,
  0x65, 0xf5, 0x18, 0x3f, 0xb6, 0x0f, 0xd6, 0x3e, 0x43, 0x79, 0x66, 0x3f,
  0x3a, 0x3d, 0x92, 0xbc, 0xb1, 0x9c, 0x5d, 0x3e, 0xf1, 0x6d, 0x33, 0xbf,
  0x12, 0x6e, 0x73, 0x3d, 0x26, 0x25, 0x9c, 0x3e, 0xf8, 0xb9, 0x08, 0xbf,
  0xae, 0xb4, 0x9a, 0x3e, 0xea, 0x96, 0x78, 0x3f, 0x70, 0x97, 0x74, 0x3f,
  0xa3, 0xb7, 0x39, 0xbf, 0x4e, 0xce, 0xef, 0xbd, 0xf9, 0xe1, 0x39, 0xbe,
  0x11, 0x08, 0x08, 0xbf, 0x8e, 0x0a, 0x80, 0xbe, 0x4a, 0xac, 0x71, 0xbf,
  0x09, 0xe7, 0x88, 0x3d, 0x48, 0xf8, 0x9a, 0xbe, 0x63, 0x6a, 0xd1, 0x3d,
  0xf9, 0x18, 0x84, 0x3d, 0x2a, 0xcb, 0xf9, 0x3e, 0xf2, 0xa3, 0x23, 0x3c,
  0x2a, 0x1e, 0x01, 0x3f, 0x83, 0x2e, 0xfe, 0x3e, 0x7c, 0x2f, 0xbd, 0x3e,
  0x17, 0xcb, 0x9c, 0xbe, 0xa2, 0x0f, 0x65, 0x3e, 0x6b, 0x21, 0x48, 0x3e,
  0x63, 0x24, 0x3e, 0x3f, 0x6d, 0x75, 0x7c, 0x3f, 0xb5, 0xac, 0x18, 0x3f,
  0x12, 0xf0, 0x5b, 0x3f, 0x85, 0x8a, 0xfe, 0xbc, 0x1b, 0x6c, 0x5e, 0x3e,
  0xa7, 0xb4, 0x9d, 0xbd, 0x04, 0x44, 0xe7, 0xbe, 0x3a, 0x33, 0xb6, 0xbe,
  0x3b, 0x19, 0x63, 0xbf, 0x39, 0x91, 0x18, 0xbb, 0xb3, 0xea, 0x56, 0xbe,
  0xbc, 0x46, 0x00, 0x3f, 0x3c, 0xec, 0xd0, 0x3c, 0x62, 0xc9, 0x1f, 0xbf,
  0x96, 0x58, 0xf8, 0xbd, 0xeb, 0x58, 0xbb, 0x3e, 0x3c, 0xbc, 0xa0, 0xbe,
  0x0e, 0x89, 0x75, 0xbe, 0x4d, 0x4c, 0xa0, 0xbe, 0xa1, 0xfe, 0x8b, 0xbe,
  0x92, 0xf0, 0xba, 0xbe, 0x5b, 0x83, 0x9a, 0xbe, 0x02, 0x7a, 0x73, 0x3d,
  0x1c, 0xa1, 0x05, 0x3e, 0x31, 0xff, 0x0d, 0xbe, 0xf7, 0x43, 0x61, 0xbe,
  0x28, 0x6b, 0xc1, 0x3e, 0x97, 0x68, 0xdc, 0xbe, 0x1a, 0x2c, 0x5b, 0xbe,
  0x17, 0x5c, 0x92, 0xbe, 0xf6, 0x15, 0x5f, 0xbd, 0xae, 0xc7, 0x7b, 0x3e,
  0x14, 0xdd, 0x2f, 0x3e, 0xbc, 0x5c, 0xc5, 0xbe, 0x87, 0x5f, 0xcb, 0xbd,
  0x91, 0x9f, 0x38, 0x3e, 0x66, 0x35, 0x09, 0xbd, 0x00, 0x0c, 0x9a, 0x3f,
  0xb7, 0x2e, 0x5a, 0xbe, 0x37, 0x39, 0x0a, 0x3e, 0x3b, 0x09, 0x34, 0x3f,
  0x6a, 0x93, 0x4f, 0xbf, 0x5f, 0x28, 0x10, 0xbe, 0xfc, 0xc8, 0x9f, 0x3e,
  0x3e, 0xfd, 0xff, 0xff, 0x10, 0x00, 0x00, 0x00, 0x07, 0x00, 0x00, 0x00,
  0x14, 0x00, 0x00, 0x00, 0x38, 0x00, 0x00, 0x00, 0x02, 0x00, 0x00, 0x00,
  0x1e, 0x00, 0x00, 0x00, 0x04, 0x00, 0x00, 0x00, 0x20, 0x00, 0x00, 0x00,
  0x73, 0x65, 0x71, 0x75, 0x65, 0x6e, 0x74, 0x69, 0x61, 0x6c, 0x5f, 0x31,
  0x2f, 0x64, 0x65, 0x6e, 0x73, 0x65, 0x5f, 0x44, 0x65, 0x6e, 0x73, 0x65,
  0x31, 0x2f, 0x4d, 0x61, 0x74, 0x4d, 0x75, 0x6c, 0x00, 0x00, 0x00, 0x00,
  0xa4, 0xfc, 0xff, 0xff, 0xae, 0xfd, 0xff, 0xff, 0x04, 0x00, 0x00, 0x00,
  0x08, 0x00, 0x00, 0x00, 0xff, 0xff, 0xff, 0xff, 0x04, 0x00, 0x00, 0x00,
  0x00, 0x00, 0x0e, 0x00, 0x18, 0x00, 0x08, 0x00, 0x07, 0x00, 0x0c, 0x00,
  0x10, 0x00, 0x14, 0x00, 0x0e, 0x00, 0x00, 0x00, 0x00, 0x00, 0x00, 0x02,
  0x10, 0x00, 0x00, 0x00, 0x06, 0x00, 0x00, 0x00, 0x10, 0x00, 0x00, 0x00,
  0x34, 0x00, 0x00, 0x00, 0x01, 0x00, 0x00, 0x00, 0x02, 0x00, 0x00, 0x00,
  0x23, 0x00, 0x00, 0x00, 0x73, 0x65, 0x71, 0x75, 0x65, 0x6e, 0x74, 0x69,
  0x61, 0x6c, 0x5f, 0x31, 0x2f, 0x66, 0x6c, 0x61, 0x74, 0x74, 0x65, 0x6e,
  0x5f, 0x46, 0x6c, 0x61, 0x74, 0x74, 0x65, 0x6e, 0x31, 0x2f, 0x43, 0x6f,
  0x6e, 0x73, 0x74, 0x00, 0x14, 0xfd, 0xff, 0xff, 0x1e, 0xfe, 0xff, 0xff,
  0x04, 0x00, 0x00, 0x00, 0x10, 0x00, 0x00, 0x00, 0xe8, 0x07, 0xcc, 0xbb,
  0x63, 0xb6, 0x83, 0x3f, 0xc4, 0x16, 0xfe, 0xbb, 0xd2, 0x6a, 0xbb, 0xbc,
  0x16, 0xfe, 0xff, 0xff, 0x10, 0x00, 0x00, 0x00, 0x05, 0x00, 0x00, 0x00,
  0x10, 0x00, 0x00, 0x00, 0x4c, 0x00, 0x00, 0x00, 0x01, 0x00, 0x00, 0x00,
  0x04, 0x00, 0x00, 0x00, 0x39, 0x00, 0x00, 0x00, 0x73, 0x65, 0x71, 0x75,
  0x65, 0x6e, 0x74, 0x69, 0x61, 0x6c, 0x5f, 0x31, 0x2f, 0x64, 0x65, 0x6e,
  0x73, 0x65, 0x5f, 0x44, 0x65, 0x6e, 0x73, 0x65, 0x32, 0x2f, 0x42, 0x69,
  0x61, 0x73, 0x41, 0x64, 0x64, 0x2f, 0x52, 0x65, 0x61, 0x64, 0x56, 0x61,
  0x72, 0x69, 0x61, 0x62, 0x6c, 0x65, 0x4f, 0x70, 0x2f, 0x72, 0x65, 0x73,
  0x6f, 0x75, 0x72, 0x63, 0x65, 0x00, 0x00, 0x00, 0x90, 0xfd, 0xff, 0xff,
  0x9a, 0xfe, 0xff, 0xff, 0x04, 0x00, 0x00, 0x00, 0x78, 0x00, 0x00, 0x00,
  0x70, 0x42, 0x9c, 0x3c, 0x79, 0xd1, 0x29, 0xbc, 0xe9, 0x47, 0x1a, 0xbc,
  0xb7, 0xf6, 0x1e, 0x3c, 0x4b, 0x55, 0xa0, 0x3c, 0x64, 0x94, 0x0e, 0x3c,
  0xc5, 0xa2, 0xe1, 0xbb, 0xfe, 0xee, 0xad, 0x3c, 0x59, 0xe9, 0x1d, 0xbc,
  0x33, 0x28, 0xf7, 0xbc, 0x54, 0x05, 0x76, 0xbb, 0x15, 0x53, 0x46, 0xbd,
  0x23, 0x78, 0x5a, 0x3c, 0x40, 0x35, 0x12, 0x3c, 0xce, 0x6d, 0x80, 0xbc,
  0xc7, 0xaa, 0x36, 0xbb, 0x56, 0x37, 0xf2, 0x3b, 0x2a, 0xb5, 0x47, 0xbc,
  0x9a, 0x43, 0xd6, 0xbc, 0x83, 0x88, 0x23, 0xbc, 0xfe, 0xad, 0xd7, 0x3a,
  0x45, 0x6a, 0xe4, 0x3c, 0x99, 0xe6, 0xf6, 0x3b, 0x76, 0x59, 0x67, 0x3c,
  0x37, 0x1b, 0x61, 0xbc, 0x20, 0x2f, 0xfb, 0x3c, 0xa7, 0xf9, 0x17, 0xbc,
  0x10, 0xc6, 0x43, 0x3c, 0x0f, 0x78, 0xaf, 0x3c, 0x75, 0xc2, 0x70, 0xbc,
  0xfa, 0xfe, 0xff, 0xff, 0x10, 0x00, 0x00, 0x00, 0x04, 0x00, 0x00, 0x00,
  0x10, 0x00, 0x00, 0x00, 0x4c, 0x00, 0x00, 0x00, 0x01, 0x00, 0x00, 0x00,
  0x1e, 0x00, 0x00, 0x00, 0x39, 0x00, 0x00, 0x00, 0x73, 0x65, 0x71, 0x75,
  0x65, 0x6e, 0x74, 0x69, 0x61, 0x6c, 0x5f, 0x31, 0x2f, 0x64, 0x65, 0x6e,
  0x73, 0x65, 0x5f, 0x44, 0x65, 0x6e, 0x73, 0x65, 0x31, 0x2f, 0x42, 0x69,
  0x61, 0x73, 0x41, 0x64, 0x64, 0x2f, 0x52, 0x65, 0x61, 0x64, 0x56, 0x61,
  0x72, 0x69, 0x61, 0x62, 0x6c, 0x65, 0x4f, 0x70, 0x2f, 0x72, 0x65, 0x73,
  0x6f, 0x75, 0x72, 0x63, 0x65, 0x00, 0x00, 0x00, 0x74, 0xfe, 0xff, 0xff,
  0x7e, 0xff, 0xff, 0xff, 0x04, 0x00, 0x00, 0x00, 0x10, 0x00, 0x00, 0x00,
  0x00, 0x00, 0x00, 0x00, 0xad, 0x37, 0x75, 0x3c, 0x00, 0x00, 0x00, 0x00,
  0x00, 0x00, 0x00, 0x00, 0x76, 0xff, 0xff, 0xff, 0x10, 0x00, 0x00, 0x00,
  0x03, 0x00, 0x00, 0x00, 0x10, 0x00, 0x00, 0x00, 0x50, 0x00, 0x00, 0x00,
  0x01, 0x00, 0x00, 0x00, 0x04, 0x00, 0x00, 0x00, 0x3b, 0x00, 0x00, 0x00,
  0x73, 0x65, 0x71, 0x75, 0x65, 0x6e, 0x74, 0x69, 0x61, 0x6c, 0x5f, 0x31,
  0x2f, 0x63, 0x6f, 0x6e, 0x76, 0x32, 0x64, 0x5f, 0x43, 0x6f, 0x6e, 0x76,
  0x32, 0x44, 0x32, 0x2f, 0x42, 0x69, 0x61, 0x73, 0x41, 0x64, 0x64, 0x2f,
  0x52, 0x65, 0x61, 0x64, 0x56, 0x61, 0x72, 0x69, 0x61, 0x62, 0x6c, 0x65,
  0x4f, 0x70, 0x2f, 0x72, 0x65, 0x73, 0x6f, 0x75, 0x72, 0x63, 0x65, 0x00,
  0x04, 0x00, 0x06, 0x00, 0x04, 0x00, 0x00, 0x00, 0x00, 0x00, 0x06, 0x00,
  0x08, 0x00, 0x04, 0x00, 0x06, 0x00, 0x00, 0x00, 0x04, 0x00, 0x00, 0x00,
  0x10, 0x00, 0x00, 0x00, 0x50, 0x43, 0x91, 0x39, 0x00, 0x00, 0x00, 0x00,
  0x68, 0xc6, 0xd7, 0x3b, 0x51, 0x3a, 0x68, 0xbb, 0x00, 0x00, 0x0e, 0x00,
  0x14, 0x00, 0x04, 0x00, 0x00, 0x00, 0x08, 0x00, 0x0c, 0x00, 0x10, 0x00,
  0x0e, 0x00, 0x00, 0x00, 0x10, 0x00, 0x00, 0x00, 0x02, 0x00, 0x00, 0x00,
  0x10, 0x00, 0x00, 0x00, 0x4c, 0x00, 0x00, 0x00, 0x01, 0x00, 0x00, 0x00,
  0x04, 0x00, 0x00, 0x00, 0x3b, 0x00, 0x00, 0x00, 0x73, 0x65, 0x71, 0x75,
  0x65, 0x6e, 0x74, 0x69, 0x61, 0x6c, 0x5f, 0x31, 0x2f, 0x63, 0x6f, 0x6e,
  0x76, 0x32, 0x64, 0x5f, 0x43, 0x6f, 0x6e, 0x76, 0x32, 0x44, 0x31, 0x2f,
  0x42, 0x69, 0x61, 0x73, 0x41, 0x64, 0x64, 0x2f, 0x52, 0x65, 0x61, 0x64,
  0x56, 0x61, 0x72, 0x69, 0x61, 0x62, 0x6c, 0x65, 0x4f, 0x70, 0x2f, 0x72,
  0x65, 0x73, 0x6f, 0x75, 0x72, 0x63, 0x65, 0x00, 0x88, 0xff, 0xff, 0xff,
  0x14, 0x00, 0x18, 0x00, 0x04, 0x00, 0x00, 0x00, 0x08, 0x00, 0x0c, 0x00,
  0x10, 0x00, 0x00, 0x00, 0x00, 0x00, 0x14, 0x00, 0x14, 0x00, 0x00, 0x00,
  0x14, 0x00, 0x00, 0x00, 0x01, 0x00, 0x00, 0x00, 0x20, 0x00, 0x00, 0x00,
  0x4c, 0x00, 0x00, 0x00, 0x34, 0x00, 0x00, 0x00, 0x04, 0x00, 0x00, 0x00,
  0x01, 0x00, 0x00, 0x00, 0x20, 0x00, 0x00, 0x00, 0x20, 0x00, 0x00, 0x00,
  0x01, 0x00, 0x00, 0x00, 0x14, 0x00, 0x00, 0x00, 0x63, 0x6f, 0x6e, 0x76,
  0x32, 0x64, 0x5f, 0x43, 0x6f, 0x6e, 0x76, 0x32, 0x44, 0x31, 0x5f, 0x69,
  0x6e, 0x70, 0x75, 0x74, 0x00, 0x00, 0x00, 0x00, 0x04, 0x00, 0x00, 0x00,
  0xff, 0xff, 0xff, 0xff, 0x20, 0x00, 0x00, 0x00, 0x20, 0x00, 0x00, 0x00,
  0x01, 0x00, 0x00, 0x00, 0xfc, 0xff, 0xff, 0xff, 0x04, 0x00, 0x04, 0x00,
  0x04, 0x00, 0x00, 0x00
};
unsigned int model_tflite_len = 4216;
