/* 
 *  makerML_template.ino
 *  made with Arduino_TensorFlowLite version 2.1.0-ALPHA-precompiled
 *  
 *  Getting started with Machine Learning using only the Arduino_TensorflowLite library
 *  no extra libraries
 *  
 *  Copyright 2019 The TensorFlow Authors. All Rights Reserved.
 *  
 *  Changes made August 2020 by
 *  Jeremy Ellis
 *  Twitter @rocksetta
 *  website https://www.rocksetta.com/
 *  
 *  
 * Licensed under the Apache License, Version 2.0 (the "License");
 * you may not use this file except in compliance with the License.
 * You may obtain a copy of the License at
 *     http://www.apache.org/licenses/LICENSE-2.0
 * Unless required by applicable law or agreed to in writing, software
 * distributed under the License is distributed on an "AS IS" BASIS,
 * WITHOUT WARRANTIES OR CONDITIONS OF ANY KIND, either express or implied.
 * See the License for the specific language governing permissions and
 * limitations under the License.
 * ==============================================================================
 * 
 * Machine Learning from TensorflowJS in the browser 
 * to Arduino style microcontrollers. I use a three step process
 * 
 * 
 * 1. Design your Machine Learning model usiing Tensorflowjs in browser
 *  https://rocksetta.com/tensorflowjs/
 * 
 * 2. Convert your TensorflowJS Machine Learning model to #tensorflowMicro using an online docker called gitpod
 *  (or use your own command line) and create the model.h header file containing your Machine Learning model
 *  https://github.com/hpssjellis/my-examples-for-the-arduino-portentaH7/tree/master/m09-Tensoflow/tfjs-convert-to-arduino-header
 * 
 * 3. Run your model using this sketch.
 * other starting sketches at
 * 
 *  https://github.com/hpssjellis/my-examples-for-the-arduino-portentaH7/tree/master/m09-Tensoflow
 * 
 *  Hashtags
 *  #TensorflowLiteMicro
 *  #TensorflowMicro
 *  #TensorflowLiteForArduino
 *  #tfMicro
 *  #TinyMY
 *  #MakerML
 * 
 *  By Jeremy Ellis
 *  Twitter @rocksetta
 *  website https://www.rocksetta.com/
 *  
 *  Use at your own risk!
 */


//#include "b06_model_one_hot.h"  // name of the tabbed file containing your machine learning model



unsigned char model_tflite[] = {
  0x1c, 0x00, 0x00, 0x00, 0x54, 0x46, 0x4c, 0x33, 0x00, 0x00, 0x12, 0x00,
  0x1c, 0x00, 0x04, 0x00, 0x08, 0x00, 0x0c, 0x00, 0x10, 0x00, 0x14, 0x00,
  0x00, 0x00, 0x18, 0x00, 0x12, 0x00, 0x00, 0x00, 0x03, 0x00, 0x00, 0x00,
  0x14, 0x00, 0x00, 0x00, 0x1c, 0x00, 0x00, 0x00, 0xa0, 0x00, 0x00, 0x00,
  0x1c, 0x00, 0x00, 0x00, 0x48, 0x00, 0x00, 0x00, 0x02, 0x00, 0x00, 0x00,
  0xf4, 0x02, 0x00, 0x00, 0x3c, 0x02, 0x00, 0x00, 0x01, 0x00, 0x00, 0x00,
  0xa8, 0x00, 0x00, 0x00, 0x0b, 0x00, 0x00, 0x00, 0xf4, 0x05, 0x00, 0x00,
  0xf0, 0x05, 0x00, 0x00, 0xe4, 0x04, 0x00, 0x00, 0x64, 0x04, 0x00, 0x00,
  0xb8, 0x03, 0x00, 0x00, 0x34, 0x03, 0x00, 0x00, 0xdc, 0x05, 0x00, 0x00,
  0xd8, 0x05, 0x00, 0x00, 0xd4, 0x05, 0x00, 0x00, 0xd0, 0x05, 0x00, 0x00,
  0x38, 0x00, 0x00, 0x00, 0x01, 0x00, 0x00, 0x00, 0x0c, 0x00, 0x00, 0x00,
  0x08, 0x00, 0x0c, 0x00, 0x04, 0x00, 0x08, 0x00, 0x08, 0x00, 0x00, 0x00,
  0x08, 0x00, 0x00, 0x00, 0x0a, 0x00, 0x00, 0x00, 0x13, 0x00, 0x00, 0x00,
  0x6d, 0x69, 0x6e, 0x5f, 0x72, 0x75, 0x6e, 0x74, 0x69, 0x6d, 0x65, 0x5f,
  0x76, 0x65, 0x72, 0x73, 0x69, 0x6f, 0x6e, 0x00, 0x7a, 0xfb, 0xff, 0xff,
  0x04, 0x00, 0x00, 0x00, 0x10, 0x00, 0x00, 0x00, 0x31, 0x2e, 0x31, 0x34,
  0x2e, 0x30, 0x00, 0x00, 0x00, 0x00, 0x00, 0x00, 0x00, 0x00, 0x00, 0x00,
  0x0f, 0x00, 0x00, 0x00, 0x4d, 0x4c, 0x49, 0x52, 0x20, 0x43, 0x6f, 0x6e,
  0x76, 0x65, 0x72, 0x74, 0x65, 0x64, 0x2e, 0x00, 0x00, 0x00, 0x0e, 0x00,
  0x18, 0x00, 0x04, 0x00, 0x08, 0x00, 0x0c, 0x00, 0x10, 0x00, 0x14, 0x00,
  0x0e, 0x00, 0x00, 0x00, 0x14, 0x00, 0x00, 0x00, 0x38, 0x00, 0x00, 0x00,
  0x3c, 0x00, 0x00, 0x00, 0x40, 0x00, 0x00, 0x00, 0x50, 0x00, 0x00, 0x00,
  0x09, 0x00, 0x00, 0x00, 0xe8, 0x04, 0x00, 0x00, 0x70, 0x04, 0x00, 0x00,
  0xbc, 0x03, 0x00, 0x00, 0x5c, 0x03, 0x00, 0x00, 0xb0, 0x02, 0x00, 0x00,
  0x1c, 0x02, 0x00, 0x00, 0x64, 0x01, 0x00, 0x00, 0xcc, 0x00, 0x00, 0x00,
  0x54, 0x00, 0x00, 0x00, 0x01, 0x00, 0x00, 0x00, 0x00, 0x00, 0x00, 0x00,
  0x01, 0x00, 0x00, 0x00, 0x08, 0x00, 0x00, 0x00, 0x04, 0x00, 0x00, 0x00,
  0xb0, 0x01, 0x00, 0x00, 0x14, 0x01, 0x00, 0x00, 0x78, 0x00, 0x00, 0x00,
  0x10, 0x00, 0x00, 0x00, 0x04, 0x00, 0x00, 0x00, 0x6d, 0x61, 0x69, 0x6e,
  0x00, 0x00, 0x00, 0x00, 0x0e, 0xff, 0xff, 0xff, 0x01, 0x00, 0x00, 0x00,
  0x10, 0x00, 0x00, 0x00, 0x04, 0x00, 0x00, 0x00, 0x01, 0x00, 0x00, 0x00,
  0x08, 0x00, 0x00, 0x00, 0x01, 0x00, 0x00, 0x00, 0x07, 0x00, 0x00, 0x00,
  0xa0, 0xfb, 0xff, 0xff, 0x14, 0x00, 0x00, 0x00, 0x09, 0x00, 0x00, 0x00,
  0x18, 0x00, 0x00, 0x00, 0x30, 0x00, 0x00, 0x00, 0x20, 0x00, 0x00, 0x00,
  0x02, 0x00, 0x00, 0x00, 0x01, 0x00, 0x00, 0x00, 0x01, 0x00, 0x00, 0x00,
  0x08, 0x00, 0x00, 0x00, 0x49, 0x64, 0x65, 0x6e, 0x74, 0x69, 0x74, 0x79,
  0x00, 0x00, 0x00, 0x00, 0x02, 0x00, 0x00, 0x00, 0xff, 0xff, 0xff, 0xff,
  0x01, 0x00, 0x00, 0x00, 0x80, 0xfb, 0xff, 0xff, 0xde, 0xfe, 0xff, 0xff,
  0x00, 0x00, 0x00, 0x08, 0x18, 0x00, 0x00, 0x00, 0x0c, 0x00, 0x00, 0x00,
  0x04, 0x00, 0x00, 0x00, 0x98, 0xfb, 0xff, 0xff, 0x01, 0x00, 0x00, 0x00,
  0x07, 0x00, 0x00, 0x00, 0x03, 0x00, 0x00, 0x00, 0x06, 0x00, 0x00, 0x00,
  0x04, 0x00, 0x00, 0x00, 0x02, 0x00, 0x00, 0x00, 0x14, 0xfc, 0xff, 0xff,
  0x14, 0x00, 0x00, 0x00, 0x08, 0x00, 0x00, 0x00, 0x18, 0x00, 0x00, 0x00,
  0x48, 0x00, 0x00, 0x00, 0x38, 0x00, 0x00, 0x00, 0x02, 0x00, 0x00, 0x00,
  0x01, 0x00, 0x00, 0x00, 0x01, 0x00, 0x00, 0x00, 0x21, 0x00, 0x00, 0x00,
  0x73, 0x65, 0x71, 0x75, 0x65, 0x6e, 0x74, 0x69, 0x61, 0x6c, 0x5f, 0x31,
  0x2f, 0x64, 0x65, 0x6e, 0x73, 0x65, 0x5f, 0x44, 0x65, 0x6e, 0x73, 0x65,
  0x32, 0x2f, 0x42, 0x69, 0x61, 0x73, 0x41, 0x64, 0x64, 0x00, 0x00, 0x00,
  0x02, 0x00, 0x00, 0x00, 0xff, 0xff, 0xff, 0xff, 0x01, 0x00, 0x00, 0x00,
  0x20, 0xfd, 0xff, 0xff, 0x00, 0x00, 0x0a, 0x00, 0x10, 0x00, 0x04, 0x00,
  0x08, 0x00, 0x0c, 0x00, 0x0a, 0x00, 0x00, 0x00, 0x01, 0x00, 0x00, 0x00,
  0x10, 0x00, 0x00, 0x00, 0x04, 0x00, 0x00, 0x00, 0x01, 0x00, 0x00, 0x00,
  0x06, 0x00, 0x00, 0x00, 0x01, 0x00, 0x00, 0x00, 0x05, 0x00, 0x00, 0x00,
  0x56, 0xff, 0xff, 0xff, 0x00, 0x00, 0x00, 0x0e, 0x01, 0x00, 0x00, 0x00,
  0xa8, 0xfc, 0xff, 0xff, 0x14, 0x00, 0x00, 0x00, 0x07, 0x00, 0x00, 0x00,
  0x18, 0x00, 0x00, 0x00, 0x48, 0x00, 0x00, 0x00, 0x38, 0x00, 0x00, 0x00,
  0x02, 0x00, 0x00, 0x00, 0x01, 0x00, 0x00, 0x00, 0x0a, 0x00, 0x00, 0x00,
  0x21, 0x00, 0x00, 0x00, 0x73, 0x65, 0x71, 0x75, 0x65, 0x6e, 0x74, 0x69,
  0x61, 0x6c, 0x5f, 0x31, 0x2f, 0x64, 0x65, 0x6e, 0x73, 0x65, 0x5f, 0x44,
  0x65, 0x6e, 0x73, 0x65, 0x31, 0x2f, 0x53, 0x69, 0x67, 0x6d, 0x6f, 0x69,
  0x64, 0x00, 0x00, 0x00, 0x02, 0x00, 0x00, 0x00, 0xff, 0xff, 0xff, 0xff,
  0x0a, 0x00, 0x00, 0x00, 0xb4, 0xfd, 0xff, 0xff, 0x00, 0x00, 0x0e, 0x00,
  0x14, 0x00, 0x00, 0x00, 0x08, 0x00, 0x0c, 0x00, 0x07, 0x00, 0x10, 0x00,
  0x0e, 0x00, 0x00, 0x00, 0x00, 0x00, 0x00, 0x08, 0x18, 0x00, 0x00, 0x00,
  0x0c, 0x00, 0x00, 0x00, 0x04, 0x00, 0x00, 0x00, 0xc8, 0xfc, 0xff, 0xff,
  0x01, 0x00, 0x00, 0x00, 0x05, 0x00, 0x00, 0x00, 0x03, 0x00, 0x00, 0x00,
  0x00, 0x00, 0x00, 0x00, 0x03, 0x00, 0x00, 0x00, 0x01, 0x00, 0x00, 0x00,
  0x00, 0x00, 0x0a, 0x00, 0x0c, 0x00, 0x07, 0x00, 0x00, 0x00, 0x08, 0x00,
  0x0a, 0x00, 0x00, 0x00, 0x00, 0x00, 0x00, 0x09, 0x01, 0x00, 0x00, 0x00,
  0x5c, 0xfd, 0xff, 0xff, 0x14, 0x00, 0x00, 0x00, 0x06, 0x00, 0x00, 0x00,
  0x18, 0x00, 0x00, 0x00, 0x48, 0x00, 0x00, 0x00, 0x38, 0x00, 0x00, 0x00,
  0x02, 0x00, 0x00, 0x00, 0x01, 0x00, 0x00, 0x00, 0x0a, 0x00, 0x00, 0x00,
  0x21, 0x00, 0x00, 0x00, 0x73, 0x65, 0x71, 0x75, 0x65, 0x6e, 0x74, 0x69,
  0x61, 0x6c, 0x5f, 0x31, 0x2f, 0x64, 0x65, 0x6e, 0x73, 0x65, 0x5f, 0x44,
  0x65, 0x6e, 0x73, 0x65, 0x31, 0x2f, 0x42, 0x69, 0x61, 0x73, 0x41, 0x64,
  0x64, 0x00, 0x00, 0x00, 0x02, 0x00, 0x00, 0x00, 0xff, 0xff, 0xff, 0xff,
  0x0a, 0x00, 0x00, 0x00, 0x54, 0xfd, 0xff, 0xff, 0x62, 0xfe, 0xff, 0xff,
  0x04, 0x00, 0x00, 0x00, 0x28, 0x00, 0x00, 0x00, 0x79, 0x3d, 0x62, 0xbe,
  0x46, 0xad, 0x0b, 0xc0, 0x7c, 0xe6, 0x91, 0x3f, 0xde, 0x85, 0xad, 0x40,
  0x8a, 0xc3, 0xce, 0xc0, 0x6e, 0x29, 0x72, 0xbf, 0x7b, 0xeb, 0x8d, 0x40,
  0xfe, 0x92, 0x02, 0xbf, 0x23, 0x8d, 0x00, 0x40, 0x2f, 0x79, 0x4b, 0x3f,
  0x5a, 0xfe, 0xff, 0xff, 0x10, 0x00, 0x00, 0x00, 0x05, 0x00, 0x00, 0x00,
  0x14, 0x00, 0x00, 0x00, 0x38, 0x00, 0x00, 0x00, 0x02, 0x00, 0x00, 0x00,
  0x01, 0x00, 0x00, 0x00, 0x0a, 0x00, 0x00, 0x00, 0x20, 0x00, 0x00, 0x00,
  0x73, 0x65, 0x71, 0x75, 0x65, 0x6e, 0x74, 0x69, 0x61, 0x6c, 0x5f, 0x31,
  0x2f, 0x64, 0x65, 0x6e, 0x73, 0x65, 0x5f, 0x44, 0x65, 0x6e, 0x73, 0x65,
  0x32, 0x2f, 0x4d, 0x61, 0x74, 0x4d, 0x75, 0x6c, 0x00, 0x00, 0x00, 0x00,
  0xd4, 0xfd, 0xff, 0xff, 0xe2, 0xfe, 0xff, 0xff, 0x04, 0x00, 0x00, 0x00,
  0x50, 0x00, 0x00, 0x00, 0xc9, 0x10, 0xc4, 0x3e, 0xa9, 0x15, 0xe7, 0xba,
  0x0c, 0x64, 0x2b, 0xbf, 0xf4, 0xba, 0x18, 0x40, 0x32, 0x88, 0x10, 0xbf,
  0xd0, 0xcf, 0x11, 0xbf, 0xef, 0xb5, 0x8b, 0x40, 0xcd, 0x80, 0x8a, 0x40,
  0x6e, 0xef, 0xa7, 0x40, 0x8c, 0xd9, 0x75, 0xc0, 0x5f, 0x96, 0xaf, 0x3e,
  0x51, 0xc4, 0x55, 0x3f, 0x65, 0x19, 0x1f, 0x40, 0x4d, 0xfd, 0x81, 0xc0,
  0xa0, 0xca, 0xb2, 0xbf, 0xbe, 0xd9, 0xa1, 0xbf, 0xef, 0x8d, 0xba, 0x3e,
  0xfa, 0x9a, 0xff, 0xbf, 0x39, 0x14, 0xd7, 0xbe, 0x0f, 0xf8, 0x22, 0xbf,
  0x02, 0xff, 0xff, 0xff, 0x10, 0x00, 0x00, 0x00, 0x04, 0x00, 0x00, 0x00,
  0x14, 0x00, 0x00, 0x00, 0x38, 0x00, 0x00, 0x00, 0x02, 0x00, 0x00, 0x00,
  0x0a, 0x00, 0x00, 0x00, 0x02, 0x00, 0x00, 0x00, 0x20, 0x00, 0x00, 0x00,
  0x73, 0x65, 0x71, 0x75, 0x65, 0x6e, 0x74, 0x69, 0x61, 0x6c, 0x5f, 0x31,
  0x2f, 0x64, 0x65, 0x6e, 0x73, 0x65, 0x5f, 0x44, 0x65, 0x6e, 0x73, 0x65,
  0x31, 0x2f, 0x4d, 0x61, 0x74, 0x4d, 0x75, 0x6c, 0x00, 0x00, 0x00, 0x00,
  0x7c, 0xfe, 0xff, 0xff, 0x8a, 0xff, 0xff, 0xff, 0x04, 0x00, 0x00, 0x00,
  0x04, 0x00, 0x00, 0x00, 0x7e, 0x53, 0x0d, 0xbe, 0x5e, 0xff, 0xff, 0xff,
  0x10, 0x00, 0x00, 0x00, 0x03, 0x00, 0x00, 0x00, 0x10, 0x00, 0x00, 0x00,
  0x50, 0x00, 0x00, 0x00, 0x01, 0x00, 0x00, 0x00, 0x01, 0x00, 0x00, 0x00,
  0x39, 0x00, 0x00, 0x00, 0x73, 0x65, 0x71, 0x75, 0x65, 0x6e, 0x74, 0x69,
  0x61, 0x6c, 0x5f, 0x31, 0x2f, 0x64, 0x65, 0x6e, 0x73, 0x65, 0x5f, 0x44,
  0x65, 0x6e, 0x73, 0x65, 0x32, 0x2f, 0x42, 0x69, 0x61, 0x73, 0x41, 0x64,
  0x64, 0x2f, 0x52, 0x65, 0x61, 0x64, 0x56, 0x61, 0x72, 0x69, 0x61, 0x62,
  0x6c, 0x65, 0x4f, 0x70, 0x2f, 0x72, 0x65, 0x73, 0x6f, 0x75, 0x72, 0x63,
  0x65, 0x00, 0x00, 0x00, 0x04, 0x00, 0x06, 0x00, 0x04, 0x00, 0x00, 0x00,
  0x00, 0x00, 0x06, 0x00, 0x08, 0x00, 0x04, 0x00, 0x06, 0x00, 0x00, 0x00,
  0x04, 0x00, 0x00, 0x00, 0x28, 0x00, 0x00, 0x00, 0x7b, 0x48, 0x6c, 0x3d,
  0xfc, 0xfc, 0xd2, 0x3d, 0xf3, 0x3a, 0x56, 0x3e, 0x0a, 0x87, 0x93, 0xbf,
  0xbf, 0x6c, 0xdd, 0x3f, 0xd5, 0x5f, 0x6d, 0xbe, 0xef, 0xbb, 0x8d, 0xbf,
  0x07, 0x9b, 0x23, 0xbf, 0x1e, 0x63, 0x44, 0x3d, 0x56, 0xda, 0xca, 0x3d,
  0x00, 0x00, 0x0e, 0x00, 0x14, 0x00, 0x04, 0x00, 0x00, 0x00, 0x08, 0x00,
  0x0c, 0x00, 0x10, 0x00, 0x0e, 0x00, 0x00, 0x00, 0x10, 0x00, 0x00, 0x00,
  0x02, 0x00, 0x00, 0x00, 0x10, 0x00, 0x00, 0x00, 0x4c, 0x00, 0x00, 0x00,
  0x01, 0x00, 0x00, 0x00, 0x0a, 0x00, 0x00, 0x00, 0x39, 0x00, 0x00, 0x00,
  0x73, 0x65, 0x71, 0x75, 0x65, 0x6e, 0x74, 0x69, 0x61, 0x6c, 0x5f, 0x31,
  0x2f, 0x64, 0x65, 0x6e, 0x73, 0x65, 0x5f, 0x44, 0x65, 0x6e, 0x73, 0x65,
  0x31, 0x2f, 0x42, 0x69, 0x61, 0x73, 0x41, 0x64, 0x64, 0x2f, 0x52, 0x65,
  0x61, 0x64, 0x56, 0x61, 0x72, 0x69, 0x61, 0x62, 0x6c, 0x65, 0x4f, 0x70,
  0x2f, 0x72, 0x65, 0x73, 0x6f, 0x75, 0x72, 0x63, 0x65, 0x00, 0x00, 0x00,
  0x9c, 0xff, 0xff, 0xff, 0x14, 0x00, 0x18, 0x00, 0x04, 0x00, 0x00, 0x00,
  0x08, 0x00, 0x0c, 0x00, 0x10, 0x00, 0x00, 0x00, 0x00, 0x00, 0x14, 0x00,
  0x14, 0x00, 0x00, 0x00, 0x14, 0x00, 0x00, 0x00, 0x01, 0x00, 0x00, 0x00,
  0x18, 0x00, 0x00, 0x00, 0x38, 0x00, 0x00, 0x00, 0x28, 0x00, 0x00, 0x00,
  0x02, 0x00, 0x00, 0x00, 0x01, 0x00, 0x00, 0x00, 0x02, 0x00, 0x00, 0x00,
  0x12, 0x00, 0x00, 0x00, 0x64, 0x65, 0x6e, 0x73, 0x65, 0x5f, 0x44, 0x65,
  0x6e, 0x73, 0x65, 0x31, 0x5f, 0x69, 0x6e, 0x70, 0x75, 0x74, 0x00, 0x00,
  0x02, 0x00, 0x00, 0x00, 0xff, 0xff, 0xff, 0xff, 0x02, 0x00, 0x00, 0x00,
  0xfc, 0xff, 0xff, 0xff, 0x04, 0x00, 0x04, 0x00, 0x04, 0x00, 0x00, 0x00
};
unsigned int model_tflite_len = 1608;











#include "Arduino.h"
#include <TensorFlowLite.h>

// A few important global variables

// Create an area of memory to use for input, output, and intermediate arrays.
constexpr int kTensorArenaSize = 15 * 1024;  // Original was 2*1024; Large Board likes 20*1024
uint8_t tensor_arena[kTensorArenaSize];

//TfLiteStatus invoke_status;
int myZeroIfPredictionOk;

/*================= Start Advanced Area ===============================*/

#include "tensorflow/lite/micro/all_ops_resolver.h"
//#include "tensorflow/lite/micro/kernels/micro_ops.h"
//#include "tensorflow/lite/micro/micro_mutable_op_resolver.h"

#include "tensorflow/lite/micro/micro_error_reporter.h"  // may have issues on M4 core
#include "tensorflow/lite/micro/micro_interpreter.h"
#include "tensorflow/lite/schema/schema_generated.h"
#include "tensorflow/lite/version.h"
#include "tensorflow/lite/c/common.h"
//#include "tensorflow/lite/c/c_api.h" // has interesting funcitons, not in main library


// Start Debug.cc information    ----------------------------------------------------------

 #if  defined (CORE_CM7)  ||  defined (YOUR_BOARD1) // CORE_CM7 is for the PortentaH7 outer core
 
    // do abosolutely nothing the default works
    
 #elif defined (CORE_CM4)  || defined (NANO_33_BLE) ||  defined (YOUR_BOARD2)  // CORE_CM4 is for the PortentaH7 inner core
 
     #define DEBUG_SERIAL_OBJECT (Serial) 

     extern "C" void DebugLog(const char* s) {
        static bool is_initialized = false;
        if (!is_initialized) {
           DEBUG_SERIAL_OBJECT.begin(9600);
           is_initialized = true;
        }
        DEBUG_SERIAL_OBJECT.print(s);
     }

 #elif defined (__SAM3X8E__)  ||  defined (YOUR_BOARD3) // Arduino UNO style boards

     #define DEBUG_SERIAL_OBJECT (SerialUSB) 

     extern "C" void DebugLog(const char* s) {
        static bool is_initialized = false;
        if (!is_initialized) {
           DEBUG_SERIAL_OBJECT.begin(9600);
           is_initialized = true;
        }
        DEBUG_SERIAL_OBJECT.print(s);
     }
 #elif defined (SEEED_XIAO_M0)  ||  defined (YOUR_BOARD4) // The new $5 USD Seeeduino XIAO board

     #define CFG_TUSB_DEBUG
     
 #else
   // don't do any debugging until you figure out your board  
   
   extern "C" void DebugLog(const char* s) {
     // Do not log debug info
   } 
 #endif


/*
 * nano_33_iot.build.board=SAMD_NANO_33_IOT  // have not got it working yet
 * 
*/

// End Debug.cc information    ----------------------------------------------------------


namespace { // Start namespace----------------------------------------------------------

   // define needed variables
   tflite::ErrorReporter* error_reporter = nullptr;
   const tflite::Model* model = nullptr;
   tflite::MicroInterpreter* interpreter = nullptr;
   TfLiteTensor* input = nullptr;
   TfLiteTensor* output = nullptr;


}  // END namespace----------------------------------------------------------



/*================= End Advanced Area ===============================*/


/*================= Start Smart Area ================================*/

void modelSetup(const unsigned char theModel[]){

  // NOLINTNEXTLINE(runtime-global-variables)
  
   static tflite::MicroErrorReporter micro_error_reporter;
  
   error_reporter = &micro_error_reporter;  

   // Map the model into a usable data structure. This doesn't involve any
   // copying or parsing, it's a very lightweight operation.


   model = tflite::GetModel(theModel);  // name from the tflite converter model.h file

  
  if (model->version() != TFLITE_SCHEMA_VERSION) {
    TF_LITE_REPORT_ERROR(error_reporter,
                         "Model provided is schema version %d not equal "
                         "to supported version %d.",
                         model->version(), TFLITE_SCHEMA_VERSION);
    return;
  }

  // This pulls in all the operation implementations we need.
  // NOLINTNEXTLINE(runtime-global-variables)

  
  static tflite::AllOpsResolver resolver;


  /* // replace the above line if you know each operation to save space
  
  static tflite::MicroMutableOpResolver<5> micro_op_resolver;  // NOLINT
  micro_op_resolver.AddBuiltin(tflite::BuiltinOperator_DEPTHWISE_CONV_2D,tflite::ops::micro::Register_DEPTHWISE_CONV_2D() );
  micro_op_resolver.AddBuiltin(tflite::BuiltinOperator_MAX_POOL_2D,tflite::ops::micro::Register_MAX_POOL_2D() );
  micro_op_resolver.AddBuiltin(tflite::BuiltinOperator_CONV_2D,tflite::ops::micro::Register_CONV_2D() );
  micro_op_resolver.AddBuiltin(tflite::BuiltinOperator_FULLY_CONNECTED,tflite::ops::micro::Register_FULLY_CONNECTED() );
  micro_op_resolver.AddBuiltin(tflite::BuiltinOperator_SOFTMAX,tflite::ops::micro::Register_SOFTMAX() );

   * 
   */
   

  // Build an interpreter to run the model with.
  static tflite::MicroInterpreter static_interpreter(model, resolver, tensor_arena, kTensorArenaSize, error_reporter);
  
  interpreter = &static_interpreter;

  // Allocate memory from the tensor_arena for the model's tensors.
  TfLiteStatus allocate_status = interpreter->AllocateTensors();
  
  if (allocate_status != kTfLiteOk) {
    TF_LITE_REPORT_ERROR(error_reporter, "AllocateTensors() failed");
    return;
  }

  // Obtain pointers to the model's input and output tensors.
  input = interpreter->input(0);
  output = interpreter->output(0);
 
}


// Main prediction function
void modelPredict(){   

  // Run inference, and report any error
  //TfLiteStatus invoke_status = interpreter->Invoke();
  // I made the above a global variable
  myZeroIfPredictionOk = interpreter->Invoke();
  
  // if (invoke_status != kTfLiteOk) {
  //    Serial.print("Error with input: " + String(myInput));
  // }


}



/*================= End Smart Area ======================================*/


/*================= Start Maker Area ======================================*/



int myLed = LED_BUILTIN;   // or 7 or 5 or LEDB etc
String myLedState = "Not Set";

void setup() {
   randomSeed(analogRead(A0));
   Serial.begin(115200);      // 9600
   pinMode(myLed, OUTPUT);   
   
   modelSetup(model_tflite);    

}


void loop() {

    // https://www.tensorflow.org/lite/api_docs/cc/class/tflite/impl/interpreter
    // interpreter is a pointer to Tensor data note () then []

    // The following lines show how to to do a basic input set, prediction, output read.

     
 

    float myInput[8] = {1,1,0,0,1,0,0,0};        // set an array variable Crow one hot encoded
    interpreter->input(0)->data.f = myInput;     // point the tensor to the array.
    
    //Important to print the inputs before the predic
   // Serial.println("Input A: " +  String(interpreter->input(0)->data.f[0]) + ", Input B: " +  String(interpreter->input(0)->data.f[1]));

    modelPredict();  // run the prediction
    
    Serial.println("Mammal     :  " + String(interpreter->output(0)->data.f[0],6) );
    Serial.println("Bird (Aves):  " + String(interpreter->output(0)->data.f[1],6) );
    Serial.println("Reptile    :  " + String(interpreter->output(0)->data.f[2],6) );
    Serial.println("Amphibians :  " + String(interpreter->output(0)->data.f[3],6) );
    Serial.println();

   
    
    Serial.println("Just getting information from the model. Delete once working." );
    Serial.println("constexpr int kTensorArenaSize: " + String(kTensorArenaSize) );
    Serial.println("interpreter->arena_used_bytes(): " + String(interpreter->arena_used_bytes()) );     
    Serial.println("Hidden Layers: " +  String( interpreter->tensors_size() )   );  
    Serial.println("input type: " + String(interpreter->input(0)->type) + ", Dimensions: " + String(interpreter->input(0)->dims->size) );
    Serial.println("output type: " + String(interpreter->output(0)->type) + ", Dimensions: " + String(interpreter->output(0)->dims->size) );
    // type: 0=kTfLiteNoType,  1=kTfLiteFloat32,   2=kTfLiteInt32, 3=kTfLiteUInt8,    4=kTfLiteInt64,   5=kTfLiteString,     6=kTfLiteBool, 
    // type: 7=kTfLiteInt16,   8=kTfLiteComplex64, 9=kTfLiteInt8, 10=kTfLiteFloat16, 11=kTfLiteFloat64, 12=kTfLiteComplex128  

    Serial.println("--------------------------" );
    Serial.println();

    delay(3000); // slows things down

}
